<s>
<pad>
</s>
[UNK]
<mask>
"
#
$
%
&
'
(
)
*
+
,
-
.
/
0
1
2
3
4
5
6
7
8
9
:
;
=
A
B
C
D
E
F
G
H
I
J
K
L
M
N
O
P
R
S
T
U
V
W
X
Y
Z
[
\
]
_
a
b
c
d
e
f
g
h
i
j
k
l
m
n
o
p
q
r
s
t
u
v
w
x
y
z
{
}
·
–
—
“
”
、
。
《
》
「
」
・
ー
一
丁
七
三
上
下
不
与
且
世
东
並
个
中
丹
为
主
久
之
乘
九
也
了
事
二
于
五
亚
些
亞
亡
交
亦
京
人
今
介
仍
他
代
令
以
件
任
份
伊
会
伯
似
但
位
低
住
体
何
佛
作
佳
使
來
例
供
依
便
係
俄
保
信
修
個
們
候
倫
值
做
停
備
傳
傷
僅
像
價
優
元
先
光
克
兒
入
內
全
兩
八
公
六
共
兵
其
具
典
内
再
军
冠
出
分
切
列
初
判
別
利
到
制
則
前
副
創
劃
劇
劉
力
功
加
动
助
勒
動
務
勝
勢
包
化
北
区
區
十
千
升
半
協
南
博
占
卡
印
即
卻
原
去
參
又
及
友
反
发
取
受
口
古
另
只
可
台
史
右
司
各
合
吉
同
名
后
向
含
告
员
周
命
和
品
哈
員
哥
唐
售
唱
商
問
單
嘉
器
嚴
四
回
因
国
國
圍
園
圖
團
土
在
地
均
坦
型
埃
城
域
執
基
堂
堡
報
場
塔
塞
境
增
壓
士
夏
外
多
大
天
太
夫
央
失
奇
奧
女
她
好
如
姆
始
委
威
子
字
存
季
学
學
它
守
安
完
宗
官
定
客
宣
室
宮
家
容
密
富
察
實
寧
寫
寶
对
封
射
将
將
專
對
導
小
少
尔
尚
就
尼
尾
局
居
屆
展
層
屬
山
岸
島
川
州
工
左
己
已
巴
市
布
希
帝
師
席
帶
常
平
年
并
幾
底
店
府
度
座
庫
康
廠
廣
延
建
开
式
引
弟
張
強
彈
当
形
影
役
往
很
律
後
得
從
復
德
心
必
志
快
念
思
性
恩
息
情
想
意
愛
感
態
應
成
我
或
战
戰
戲
戶
房
所
手
才
打
托
批
承
技
把
投
抗
拉
括
拿
持
指
授
排
採
接
控
推
提
援
播
擁
擊
擔
據
支
收
改
攻
放
政
故
效
敗
教
整
數
文
料
斯
新
斷
方
於
施
旅
族
旗
日
早
时
明
易
星
春
是
時
晚
普
景
暴
曲
更
書
曼
曾
最
會
月
有
服
朗
望
朝
期
木
未
本
机
李
村
来
東
林
果
架
查
校
核
根
格
案
梅
條
森
植
業
極
構
樂
樓
標
模
樣
橋
機
檔
權
次
歌
歐
止
正
此
步
武
歲
歷
死
段
殺
母
每
毒
比
氏
民
氣
水
永
求
江
決
沒
沙
河
油
治
況
法
波
注
泰
洋
洛
洲
活
派
流
海
消
深
清
測
港
湖
源
準
溫
滿
演
漢
澳
濟
灣
火
為
烏
無
然
照
熱
營
爭
父
爾
片
版
牌
牙
物
特
狀
獎
獨
獲
獻
率
王
现
班
現
球
理
瑞
環
瓦
生
產
用
田
由
甲
电
男
界
留
畫
異
當
病
登
發
白
百
的
皇
皮
盟
監
目
直
相
省
看
真
眾
督
知
短
石
研
破
確
碼
示
社
祖
神
票
福
科
移
程
種
稱
積
究
空
突
立
站
章
第
等
策
算
管
節
範
築
簡
米
精
系
紀
約
紅
納
級
素
索
細
終
組
結
絕
給
統
經
維
網
線
編
縣
總
織
繼
續
经
置
署
羅
美
群
義
習
老
考
者
而
聖
聞
聯
聲
職
股
育
能
臨
自
至
致
臺
與
興
舉
航
般
船
艦
色
艾
花
若
英
草
莫
華
菲
萊
萬
落
葉
著
蒂
蒙
薩
藏
藝
蘇
蘭
處
號
血
行
術
街
衛
表
被
裝
裡
製
西
要
見
規
視
親
觀
角
解
言
計
訊
記
設
許
評
詞
試
話
該
認
語
說
調
請
論
諾
證
識
警
議
護
讀
變
讓
象
貝
負
責
費
資
質
賽
走
起
超
越
足
路
身
車
軍
較
載
輯
輸
轄
轉
车
辦
農
过
近
这
进
迪
述
退
送
這
通
速
造
連
進
遊
運
過
道
達
遠
遭
選
還
邊
那
邦
郡
部
都
鄉
配
醫
釋
里
重
野
量
金
銀
錄
鎮
鐵
長
长
門
開
間
關
间
防
阿
附
降
限
院
除
陳
陸
陽
隆
隊
際
隨
雄
雅
集
雖
雙
離
難
雲
雷
電
需
靈
青
非
面
革
韓
音
響
頁
項
預
頓
領
頭
題
類
顯
風
飛
食
飾
館
首
香
馬
驗
體
高
鬥
魔
魚
魯
麗
麥
黃
黑
點
黨
龍
（
）
，
－
：
；
##a
##i
##w
##n
##e
##s
##u
##r
##p
##k
##t
##o
##y
##g
##l
##z
##h
##ー
##b
##c
##d
##6
##H
##m
##U
##4
##B
##x
##8
##7
##5
##9
##v
##G
##C
##T
##q
##0
##3
##2
##N
##1
##j
##F
##K
##f
##Y
##P
##W
##I
##A
##E
##R
##O
##D
##V
##X
##S
##M
##L
##Z
##J
##he
##er
the
##in
##on
##an
##at
##or
##en
20
##es
##ed
19
##ar
##al
of
##nd
##it
##is
##ic
in
##as
##ing
and
##ion
##ou
##re
##om
to
##il
201
##el
##ol
##ent
200
##us
##am
##le
##ac
##ro
##et
##ec
The
##st
##ad
##ur
th
##iv
10
##id
##ation
##ig
##ot
was
##ir
18
##ter
for
##ly
##em
##ch
##ul
##ow
##im
##ut
##00
on
is
199
12
##ay
as
##ers
##ith
##os
##um
##ag
##op
11
##and
##ver
st
##ce
##ts
##th
with
be
al
##ct
##her
##od
wh
fr
by
##ist
##un
re
con
198
##ri
an
##av
In
##oc
##ia
##ain
##ap
that
##ity
##est
15
##ess
or
at
##ab
##se
##ere
from
##ich
16
com
17
St
pro
##ies
##ud
##if
##ian
##ill
##ate
##ear
were
197
202
##ge
##ak
##ew
de
##ub
##art
194
##igh
are
##ip
##ard
##all
196
##ber
Ch
##ld
##nt
14
195
##og
##ort
##ial
ex
13
##ive
##ell
##ant
##qu
his
##pp
##ated
##ov
##our
he
##ment
##ect
##ine
##ong
##ens
ch
##ep
pr
30
##ost
##ore
which
##ary
su
##gh
25
193
##ast
##ord
##ical
inc
##ra
##rou
##ran
##ome
##ry
21
sp
##ame
##end
##age
had
it
##per
##ish
##ther
##ev
##ok
##iz
##ure
pl
##ust
24
##uc
##ff
sh
##so
##mer
192
##ack
22
##ous
##ight
Th
Un
not
##ave
2010
##eg
23
##cc
Al
se
##ions
##ang
##old
##ass
##ue
##ount
##ork
191
##ib
##rit
##ace
ar
comp
2012
2011
res
##ire
##man
##ath
##ob
##mp
28
##ence
##hen
26
##ign
##ie
##out
2013
also
int
2009
##ric
2008
cont
has
##wn
2014
##ng
##act
##ual
27
2016
##ond
##ice
Ar
##ater
##own
##pt
un
##ach
2015
year
per
##ik
cl
##ey
2007
##ide
ad
2019
##oll
##ations
##ory
2017
##erv
##irst
us
rec
le
its
##ru
2018
2006
part
##ark
##wo
##ition
##ates
He
##over
31
29
##ime
##ite
##ind
##lud
have
their
##ult
all
##ile
##land
ab
000
but
tr
##ould
##pl
##ction
##tern
2000
2005
##fter
first
As
##ound
other
one
includ
who
form
##ree
##ational
##fer
##aw
##hed
100
##orm
2020
##ouse
It
man
##nder
##ft
##one
rel
app
##ited
##ail
en
##ely
this
50
##eb
190
##hn
##ade
bec
Pr
##io
##pr
##oy
Com
##iss
##ents
##amp
##ubl
over
##te
##ose
##ild
2004
pop
been
##ough
##au
##are
##ph
two
##ans
Mar
40
##ors
2001
comm
ag
##ook
dis
On
An
##ons
popul
IS
##uring
under
New
##ool
00
##amil
##ex
##ase
##les
des
##ock
2021
can
##able
Sh
out
2003
Sp
##ivers
##inal
##ake
sc
##orn
##ood
##meric
##we
##rop
Americ
more
##ram
##ont
##ae
age
##ance
##oin
ind
##ied
##ember
##hy
up
189
##ren
years
her
there
##ces
cent
2002
##50
they
after
new
sy
into
ev
##orld
famil
##eld
ele
##ings
##aus
off
Jo
##hip
##son
##yp
##ict
house
##ever
##ased
pe
##ax
##olog
##ah
2022
##reat
time
bet
cons
##eral
##ug
##ton
pre
work
##ick
##ix
##oth
Pro
##rough
##ales
##rans
most
##BN
##ale
Sch
##urn
att
kn
##erm
Cl
such
ISBN
##ward
Sc
For
##rib
##gan
32
##hold
45
60
reg
##ann
##duc
##az
sub
35
used
1990
1999
loc
##here
##ted
some
imp
Le
##ics
would
##orth
##ows
##ious
##ium
Pl
city
fl
188
##ople
##ier
pres
This
##red
population
##way
##oun
##ific
##78
##ative
##form
household
1998
when
##ween
##ll
Bl
##10
med
##ros
II
me
##up
serv
##ower
##ism
them
##outh
gen
##ern
only
inter
American
1997
than
##000
##stem
##ublic
dec
United
town
##hes
##iet
36
##arg
ear
65
80
##du
play
##ula
##ina
pol
##overn
him
##aj
##ounty
186
##iving
acc
between
ac
##round
##ron
col
##ury
##ince
##ten
##ities
33
##ius
##ral
Ph
no
1980
Col
##its
##ters
##anc
##att
Is
##ilm
John
##ox
dev
##ank
Wh
##rap
num
##ines
sec
##enn
##20
Br
bu
##ement
through
##ert
##ished
##ress
##iversity
##ution
Car
##ensis
made
1996
##roup
##ames
people
act
so
am
end
##imes
during
##oss
rem
##port
Con
##eat
##ular
38
##iver
call
90
##ise
70
##ata
34
187
do
At
##air
ass
including
where
prov
##any
##ai
1994
1995
##elop
##ee
44
var
trans
many
##ett
War
##iam
Tr
##ife
par
##enc
Ad
##und
mod
Par
##inn
bl
about
##ash
##ys
64
Eng
Fran
##con
##ating
known
1992
##ollow
ret
spec
States
qu
##ery
1993
gr
Ind
37
supp
##30
found
stud
Ro
dist
##ject
##ley
There
she
##ision
##als
##ike
later
##ins
inv
def
##pen
mon
may
##eam
##11
500
sch
##der
##els
##ty
Re
##row
1991
cap
1970
became
##48
##por
##ield
##emb
govern
48
##ures
fem
##ole
##fl
again
area
sur
39
math
##fore
film
three
University
##arri
system
Or
mov
##owever
co
old
##inc
then
01
Comm
##usic
##iew
##ived
any
oper
##erman
##ident
dif
##yn
Brit
42
well
##ists
##sp
est
1989
met
##other
being
185
46
De
##ars
inst
1950
1988
Ge
1960
World
##ink
br
develop
ob
##ause
##ept
##ris
##yl
##19
You
ph
##ually
##ized
##ull
bel
55
add
##ays
long
##uss
called
##aid
##ize
Ex
##elf
follow
##ural
main
##12
##erson
##ather
aver
ser
use
family
43
##TC
char
##40
47
min
ever
living
##BC
high
ne
Am
sm
All
Gr
1987
Eu
Cent
##ained
##isc
##rom
##ounc
##ional
both
air
while
formula
75
orig
County
1945
average
land
number
Ed
##atus
contr
1986
##ean
##ung
##uch
##ii
##ets
##ides
1949
##rist
these
##AS
##irect
own
##ext
49
##eng
group
lead
frac
##itt
ext
US
1985
##ording
hist
elect
sign
02
En
##ove
##ient
count
##yc
52
##ology
##AR
##ider
German
sever
##bert
##uk
art
41
##ital
writ
##inu
##ajor
##led
Wind
300
rev
##mm
##ER
Be
1984
Ab
##ason
left
##ically
those
##ible
##ments
##ross
second
##ility
##80
##ble
name
##oot
##60
sim
##BS
##ains
ed
cre
id
eff
exp
##ntil
##ne
income
##urch
Will
school
1982
four
early
##ensus
##tt
state
rele
And
century
##ful
His
##NA
National
Can
##hem
##ially
##ange
##amb
term
we
Pol
1983
##ica
median
TV
aut
CD
const
rac
##ode
Har
##lish
King
##ives
Fl
##ently
York
##ene
Co
1979
##ternational
child
##oint
##cept
Gu
Go
government
##une
62
##osed
until
##ony
##ird
before
##amed
Sy
##ute
##ese
design
Bar
Su
Man
bro
##lex
978
##rov
School
184
Europ
May
##ages
##af
differ
##ott
disc
##ino
##ally
present
occ
right
##oph
56
##ices
public
El
53
##iev
families
dep
##ister
several
##ma
##ruct
##gram
same
##70
##my
every
180
##lect
Christ
##oman
Windows
51
After
will
major
war
Comp
appear
line
##ks
58
conc
1978
ann
##ops
Air
##ograp
Gen
record
##BA
1981
183
near
now
back
##aking
households
Char
##ivid
##erg
She
str
alb
##ane
against
small
##eter
North
km
54
##ians
##sc
produc
vers
Bro
##ta
##ille
UTC
##ner
95
Af
##echn
Gre
##ired
non
sing
##res
##angu
resp
British
feat
##omin
##ission
##oci
desc
##ature
typ
##ana
world
##15
produ
general
##arge
##ech
larg
Min
could
##olv
##atic
Inst
59
offic
Acc
Cal
##EE
La
commun
partic
open
make
##ret
99
##ube
##AN
sl
##though
times
Rep
since
class
05
##ects
##och
##ator
##vent
##aster
mil
based
et
##iqu
##ps
##eth
##AT
##ised
direct
57
City
##iod
72
series
##16
##18
Mo
##13
73
##ection
original
often
support
##urr
##ior
##cess
##mb
##hel
Ju
76
##ats
06
size
1946
Ac
##use
##ham
gu
did
1975
##ether
##ON
##rict
Part
##ience
However
##ants
85
##ler
dr
##ster
ref
Mc
each
63
pass
##by
##illion
Dec
##14
66
##OS
music
power
William
car
98
1940
1968
##IN
68
mathb
88
ent
Geor
##ilt
150
South
##sh
IC
400
charac
##let
They
1976
74
polit
began
rece
succ
water
Aust
Se
West
Dav
because
1958
Jan
##ues
1973
along
1972
large
04
red
##ship
la
if
07
incre
equ
organ
Ag
build
Sw
##ival
##17
##line
##idge
##ined
03
1969
##aim
you
Sm
squ
182
run
success
179
estab
Ne
##ky
album
1948
##arried
Gl
Mac
consider
Nov
78
##read
del
##aul
Cor
08
96
leg
located
1930
##ected
1974
09
##ended
mat
##iety
##arm
show
include
1977
requ
around
program
##for
Ass
Dr
Med
beg
cor
Lond
##ense
##hor
##aining
like
1967
1966
69
1971
law
##ured
1920
##embers
##ford
children
females
go
##apan
day
team
soc
92
Aug
London
##osition
##TV
One
mark
book
1964
return
Park
person
Mon
##rench
trad
1965
##ling
##oard
det
English
##ights
continu
##ara
##olution
77
Afric
1947
set
1956
By
following
##earch
av
1952
##ki
##conom
older
##ively
langu
##urg
##ald
1941
Me
##raft
##alk
common
publ
head
French
86
##min
within
##ily
home
JR
##me
band
eng
Japan
result
120
##int
hum
order
##ensity
August
1000
local
67
##ipp
##aving
Hist
1955
##ided
River
##rew
Her
82
No
##ke
##ately
1937
##ization
named
##ified
1962
different
93
##book
My
refer
rest
##gg
Per
##ration
dem
79
##irc
repr
##attle
Off
members
##reet
##itions
former
##wards
##tal
89
1963
1954
##AC
##ries
1959
though
High
##iven
##uary
stand
##idd
period
##ella
spe
##ences
##app
emp
##aced
Ang
val
Met
1961
##ada
1944
##ample
According
released
Oct
##ots
##IS
1939
census
87
##aur
##aint
Sec
prot
density
Res
north
##lege
##omb
##itary
##ody
83
ro
##omen
84
Soc
March
opp
##IC
##ourn
ep
Mic
cour
camp
##II
##orts
97
even
##yle
##work
##VD
##ividual
life
##eal
sum
bus
start
death
##ency
adv
still
place
Pres
##iness
##omet
1957
##ases
due
##estern
1953
June
##ogle
much
infl
Tw
Sept
International
mathbf
vill
##AM
fun
##side
1938
import
south
2023
po
##oyal
##MD
##unt
fact
During
##ID
Mor
Ser
very
##ober
Pe
Phil
total
last
1942
Apr
said
##ms
built
song
down
##ington
Island
lev
individual
hand
cr
hel
##alth
1951
##ental
##lin
White
poss
Google
sett
April
##ilar
##ita
Lat
We
##hys
vot
##uck
600
tog
##tain
##agn
January
million
rep
tit
##augh
##ouncil
July
tri
September
##ared
together
1943
October
##rix
##NS
##co
State
rad
took
among
crit
##ague
##ords
fin
bre
Ant
##rm
Li
example
repres
describ
178
94
prof
led
bas
##ness
##ple
##ES
hous
square
final
DVD
##OM
fre
season
vis
national
December
Russ
Reg
##ーー
Play
These
##lement
##akes
##idae
##oma
what
process
prop
Ear
##22
Press
game
##ison
When
800
gl
tw
1936
character
##lic
Des
##OR
expl
##ript
##press
##EC
just
pat
##ones
cult
post
##ief
popular
##che
held
Rich
YouT
included
tem
inf
November
House
Mich
allow
Act
county
James
exper
Val
##ories
resid
tel
Ev
addition
im
repl
using
##ani
Rev
160
1935
Face
married
David
##eph
five
port
App
##ora
great
##epend
##ream
appro
country
late
San
econom
short
six
##ples
lim
##iol
another
NBA
##osp
Rec
##na
web
##25
iss
published
el
event
Roman
ant
Cap
Thom
##berg
##ogn
Red
##ael
##formation
Bo
Pal
techn
##ush
##ivil
month
##umb
YouTube
aff
Town
##aria
##ning
##itter
vol
##ball
##iter
single
influ
##ena
##uel
Mal
Hol
##lished
General
Ber
##ced
history
my
histor
arr
races
George
Av
##23
female
##ested
represent
cou
##ule
##ari
attack
##urs
East
report
##ze
see
##alf
political
Del
Hen
##90
ter
list
61
Facebook
1933
##ander
##unic
arch
##acy
hig
Sal
established
chang
claim
conf
##21
Austral
PC
##ocr
males
##ards
Robert
##ribut
received
Black
der
To
##ope
way
service
III
ST
##ka
become
Not
zh
##ered
few
##mat
company
1928
Art
prev
Paul
##lo
real
##urther
units
Sim
GN
##hod
##ored
##ipal
1932
##day
##etwork
##ville
prim
Port
Feb
fe
point
turn
##ruction
Some
1931
With
##ama
curr
Stud
less
China
1927
son
Dist
control
similar
modern
##arb
##hern
AT
Street
##lear
##pan
particular
prom
mult
won
1934
##inus
177
##dom
language
considered
##ument
given
##ological
##aged
##24
Church
Febru
##ney
##rus
##ites
110
text
indust
author
February
top
born
##ittle
men
European
Trans
sk
##rote
intro
##band
village
College
fac
tradition
Republic
Lou
##adem
however
##ibr
##yd
role
Dem
##avy
perform
##ha
imm
without
Ast
care
AC
played
##ged
div
##uf
military
##ests
America
sold
##asc
third
##35
Mart
te
##ias
Fr
although
##field
1929
important
##cl
init
1918
##med
came
development
1912
##inning
##ead
##astern
Ital
various
comb
##AL
effect
Charles
African
##orthern
##ET
##ither
field
##sy
Great
Super
##oid
pi
need
sw
##EN
served
##ends
AP
##ches
Vol
ship
##loy
site
circ
NH
Party
##28
involv
##thern
wrote
MS
Pre
##anth
Don
##36
175
##ination
##era
Mark
##26
##pha
htt
ident
mile
##ract
250
conn
ins
##45
##ij
help
Union
species
##iana
Mer
Pat
Sam
sol
Arch
party
Hyp
##aken
##ck
##iction
largest
official
##abor
So
Nor
##ico
3D
England
France
##ura
below
production
Hall
Jos
1919
view
caus
700
Europe
created
##reek
1914
##ape
##33
##outhern
##irl
areas
region
PS
comple
##ida
station
Bel
##itution
##itch
dest
tour
##ini
##aff
pract
##useum
side
kill
1925
exist
##ef
##itz
grow
##eck
##27
Cont
Kn
##oo
##atural
##ss
##uter
##hic
##ve
##evision
1917
Int
1922
attem
##IT
Mil
##ably
died
race
##wood
##osa
##gy
join
71
President
##ention
##ique
##ched
having
cond
##rycon
##even
Wil
##ducation
west
Em
##artment
social
Inter
low
member
##seud
##ounced
##sequ
81
##icus
##agon
Center
1924
community
wee
176
##ichth
MV
beh
cover
developed
star
CO
Music
Bu
##MA
version
usually
##ania
Ap
##yg
rail
Dep
1926
##ring
##imate
signific
take
##ola
Hill
Jack
produced
##bor
IMD
father
130
Mod
170
##inese
##iro
enter
##IV
##iddle
##ym
special
##raw
##ways
Mag
read
##ering
AK
Sl
BBC
##aces
##rated
##ociation
1911
sent
Gar
activ
proper
human
di
##AD
##omm
##craft
##istic
##ued
best
Alex
##St
election
continued
##rick
east
1900
##29
business
sour
##epar
Che
em
##usband
Love
arg
##arch
Chinese
previous
##ago
Richard
From
##eration
building
##oute
##75
##ours
##elt
conv
##ideo
##aud
Micro
struct
##olic
IMDb
level
##ume
##ential
##atter
##forman
Council
believ
should
##iation
young
##ho
140
1913
##ges
husband
1921
##PS
##ades
Thomas
##lt
##aut
##aker
##44
##86
host
##IA
91
Michael
Ben
independ
##aper
PD
DNA
individuals
housing
God
further
written
##ising
next
##ification
Vir
case
##ecut
strong
Other
Company
101
separ
##yr
Twitter
1923
##aps
cal
Dev
Royal
HD
##serv
deb
Army
Rock
mater
##ances
nov
##alt
free
Bas
Group
Christian
gre
enc
##99
never
light
##iforn
island
##ached
##used
System
Star
##ending
days
position
body
##duct
##avel
##yan
engine
Henry
Govern
##itive
Mel
good
##atch
SP
full
moved
president
##ger
##IG
165
##ota
##ea
Do
Road
##38
Pac
relig
surv
##urb
##46
##ump
##ichthys
Although
##minist
TH
##ming
significant
states
students
##mit
Mont
Cour
##ography
BC
Green
INS
Jew
105
Instit
##ein
does
making
Peter
women
Mount
Californ
press
Canada
##ED
##hib
##less
##most
##ux
half
Rad
Cr
compet
Law
described
##ios
##ero
History
avail
Er
##burg
##ware
Game
proble
black
166
While
IP
Sn
##gr
fri
##itor
Team
relations
##cher
1910
Gold
others
offer
fail
##ya
mot
156
Serv
Emp
super
##vir
style
California
mean
##ergy
mathrm
formed
##self
Lake
Miss
AR
rul
##ophy
##ao
story
sugg
win
Book
##ators
##que
##li
##ometimes
Sen
Tom
##rum
phys
employ
##spec
155
let
168
cert
##itu
##IM
rock
hold
But
##37
Web
##asy
himself
Louis
##aign
Ob
##cent
Frank
##etic
Kh
##oul
##anted
makeup
project
##ference
106
##rian
##ersion
##ements
title
##apt
##roy
Gal
##oon
Kar
Saint
1916
Ol
mid
##34
study
Ter
##32
Pet
##39
announced
Mary
District
##ishing
Grand
cost
Ver
INSEE
office
works
bo
AS
Bay
##ves
went
must
UK
international
Sun
Lim
First
alone
white
##olf
performan
material
##ibrary
CH
##men
mag
suff
##ells
##ournal
Smith
CR
stat
hear
##aves
anim
##rol
ten
##agram
##AP
1915
function
1905
Cath
##illa
either
anal
broad
SS
League
wife
priv
Tel
householder
Mad
##ava
##lection
Cons
king
lo
market
recogn
##imately
coll
Ir
##liam
Cong
##47
Ep
##idence
##anish
##aries
forces
##of
ge
##ala
##face
bar
Wash
##ederal
frequ
road
##asing
DC
plan
##ilus
##iber
groups
method
##off
Sol
CP
##gar
Japanese
Camp
##ender
##unicipal
available
125
racial
##iers
fire
pur
television
MP
AD
##itte
##la
Fre
158
##da
##ceed
##49
Sk
sex
introduc
how
mass
Germany
Day
##cast
##liament
opened
aircraft
##ability
Asian
##fic
##US
1909
seen
##gress
fund
##matrix
##ria
159
center
##ridge
##pite
sometimes
##ensive
Bill
##lor
cast
Aut
attempt
ground
Const
begin
Census
##site
http
SA
##ify
decl
treat
##ector
##ano
Pacific
range
across
Rob
Bur
##42
rather
Cro
mar
returned
ren
##OC
hon
Franc
associ
Ann
anc
elected
mic
bi
##ootball
##reg
track
space
Western
rank
sound
##udd
countries
Association
tra
appeared
Society
109
type
##ateg
##enced
##isl
##MS
Washington
Hu
##ype
##rog
##oms
cross
followed
find
##Hz
whe
CC
neg
agre
systems
schools
Div
##erous
meet
##IR
data
##uit
##aval
meas
##za
##jects
Mill
Mus
profess
Sov
brother
##31
Many
##specially
Rail
##atory
pred
lost
##GB
##mar
Democr
Live
founded
##LE
information
live
polic
Angel
##ien
Spec
pot
Native
generally
##iting
Luc
Paris
##onment
##azine
Inc
recorded
##ought
##sel
##rt
##anding
Tor
org
successful
Kingdom
##icle
fall
1906
couples
spread
##ude
##odes
##ston
##oice
Just
Soviet
access
##iff
##merc
throughout
mus
##play
natural
##ycl
especially
research
##oor
##ership
A3
##igned
doc
##oming
##ands
##ega
Central
invest
1907
above
Boy
Battle
link
improv
##gin
1908
Sil
Hispan
games
civil
log
Dig
central
##agement
deg
Hel
network
reported
epis
township
##yt
force
##omes
stri
started
##ids
108
test
entire
model
##ili
approx
sq
##ulation
remained
pri
900
Sir
mac
Mr
Big
Vict
Im
taken
1901
Pseud
bord
##unn
once
services
##emor
Life
current
Best
Institute
Office
Club
express
far
Cat
##ointed
Je
Lab
someone
##ww
##enth
##UN
laun
##ror
If
Old
eight
##OL
##hest
Most
standard
vir
##ocal
Open
115
##osh
partial
##77
##rial
Mat
Di
months
##ca
##ampions
##elling
3000
##orpor
sel
Ox
Dis
pos
1904
##Station
##ift
Cast
##be
least
Spr
##box
##TA
##adu
##ems
##view
possible
theory
Indian
Tem
OS
ap
upon
consist
##ureau
promot
capital
introduced
Museum
princ
temper
##inger
##irth
##ask
club
Alb
##itar
##iple
Scott
About
##oric
www
Tur
provided
accept
wid
change
##uture
Bre
Award
Since
put
territ
##unk
##76
hard
Ma
den
##itan
dam
cd
##ona
campaign
Academ
##wan
parts
##km
IV
##annel
includes
##ilities
##rich
PlayStation
Str
##arrow
cop
Hispanic
ve
##B48
##43
Final
##atives
##41
Leg
word
du
lab
NHK
gave
Squ
Sant
key
fav
Te
How
##ption
cur
release
##ua
##sych
tax
##eep
##arily
pers
##ueen
DS
park
Techn
##opter
und
##EL
##overty
TVB
Bureau
##onst
Township
##road
PDF
THE
##79
lower
ra
Fort
##cm
almost
ur
UN
front
##iment
##ittee
tre
##ores
discover
Prot
career
##GA
##vironment
##opp
qual
occup
Court
clos
events
Up
1903
mother
district
regard
##pper
##alis
eventually
HK
##mbol
145
terms
##OW
itself
Instagram
##leg
Max
Australia
##ih
Hem
India
##ima
church
mount
##urity
AM
leading
higher
capt
poverty
working
##duction
##rought
Joseph
originally
##estival
food
##ellow
##mercial
##aine
transl
##mann
##aughter
saw
Bus
##inct
court
whose
128
##OD
##well
Mex
Enter
designed
##chiev
##ASA
##ufact
Tri
fig
disp
know
##95
CS
Atl
mer
close
aud
##ograph
##uth
##ette
viol
ill
instead
radio
economic
Empire
vict
Oper
male
1895
##TS
required
able
Spanish
##icial
Commun
##rid
##head
observ
Latino
Martin
Sur
##ecess
week
360
award
##omy
critic
Under
##ilos
related
##pts
##iles
except
##orough
##ength
education
administ
##cer
phot
reb
indic
certain
Camb
118
##ults
Earth
Catholic
occur
determ
bank
Dou
##lands
##bers
##AA
round
tro
bmatrix
sem
1902
Hum
movement
respons
Are
sat
1898
Brown
conduct
##soft
Class
construction
Land
ang
Two
##ado
##ato
##uz
traditional
personal
Public
Tex
lik
replaced
##enue
##DP
Long
Russian
135
##lier
##VA
##eign
Bra
pay
Greek
private
foc
means
Department
##ila
##ounter
Fro
SE
Sum
##cul
##GC
respect
thus
residents
rate
Wood
##edia
Rh
complex
Fire
army
##ingu
##utes
say
website
##ribution
little
##66
river
##action
provide
Cy
##oints
##ady
Po
Girl
rights
##uke
##ira
##eated
##eleb
collect
via
##FA
northern
##oria
according
interest
##itect
##lam
past
##antic
gun
novel
subsequ
##ager
cut
Fish
##ened
Canad
Work
##IP
Version
particip
##het
107
##board
performance
##edi
Time
##ires
away
Fri
##edy
increased
##airs
##onic
Pan
##FC
abs
##echan
##anded
##alls
unc
##98
liter
features
percent
##west
Congress
Lee
##oles
##arp
##ras
regular
Power
acqu
##amous
##iding
stated
sil
adop
##hers
destroy
##ned
Penn
##raph
##ground
brought
##ece
norm
capita
News
##usion
Hong
health
##ye
Bank
industry
##amer
dou
achiev
Wal
Bet
##anced
worked
che
##ML
Fred
Bi
Edward
allowed
prob
action
##urt
Jul
##ension
##rug
##sch
Microsoft
southern
Pri
##oke
1500
Minister
Year
particularly
exc
versus
mix
##ises
big
SC
relationship
Of
contin
104
##roid
Lord
##inux
cand
##den
municipal
battle
thought
seven
cases
outside
##owers
##isk
Britain
##bit
ES
##oche
Sub
##ament
1890
##obal
Force
joined
lived
Plan
##rac
Sing
##ternal
##hab
##vers
too
integ
##ampionship
EP
##ranch
night
Arab
performed
purp
video
116
##de
referred
coast
commercial
added
##ysis
MA
##ban
##oides
gener
von
Kong
##96
Show
Carol
##ibility
##roc
colon
Bul
manufact
##ema
##Cl
Its
Virgin
lear
##OT
##ills
majority
mach
Mass
##LC
self
energy
names
sqrt
Ha
##si
##onia
look
associated
Out
Good
trade
That
GP
Science
Academy
Second
subject
CDP
##iences
##UR
##ipl
cities
##omp
103
Hot
Valley
Elect
establish
##rael
102
##gn
Sar
situ
Ham
miss
##uan
Carl
148
##ributed
appointed
AKB48
Ros
bur
5000
cat
##istry
##ctions
##ficult
killed
##atre
Jac
SH
IB
##par
seat
##vert
origin
Win
subst
##aching
involved
farm
Ca
Linux
review
Count
influence
350
concern
Disc
applic
speed
##EM
Flor
player
neigh
difficult
1896
color
Fin
creat
TO
Project
##roph
fight
incorpor
##IL
136
Males
loss
##eel
exam
length
##ulf
eds
sn
grand
##kn
Tre
##iant
elements
larger
bound
compan
##72
base
##lying
##omus
Africa
##71
SM
source
Fant
wind
##tainment
##ils
##reme
highest
arm
##iform
remov
quest
primary
##iance
forms
Liber
meaning
##hood
friend
Lu
Latin
beginning
Rel
trib
Cup
##stein
##oral
songs
alpha
independent
Canadian
stage
ver
books
1899
##odon
featured
Chic
##cus
Kore
##mark
##ternet
completed
1897
##ION
minor
Def
value
##peror
146
##iki
##romis
reduc
caused
##utch
religious
Asia
Over
eth
Israel
structure
western
board
future
##oe
earlier
Pau
lay
Den
Mi
numbers
##vention
Service
##eri
##rel
HT
Secret
##atively
evidence
Research
##oud
films
surround
##lev
Film
Hal
cit
##ams
esc
Division
plann
points
##lied
dig
univers
Jean
culture
##rown
##reen
iP
Texas
##win
believed
sin
Fer
##ecutive
Cre
##aven
Georg
##olk
object
soon
changed
##heast
Est
Sea
##cy
domin
19th
Los
Library
##onn
##obile
reached
##55
today
##rd
##elled
##ospital
Another
NC
Italian
Mu
clear
ask
##Base
lack
##gl
emb
Ta
138
summer
specific
transport
plat
travel
##not
insp
##AF
Java
Step
##73
##hi
Jer
##umn
##ffic
Far
Prof
##awa
Lo
##ray
daughter
Prov
Pop
som
##lim
estim
Van
##ylv
Records
111
Sat
dom
writing
whom
Princ
Direct
emer
##rey
ball
opt
shows
sequ
lines
plant
nuc
increasing
##cript
##irit
celeb
##aris
##ancial
Tai
##kin
scient
candid
##ilis
##inary
rang
PR
anti
ord
decided
##iger
##inet
Gard
Blue
##ledge
##osc
##mon
##bon
Jun
TR
Middle
increase
##isions
##hemat
126
##rect
##bury
foreign
assist
construct
##ronic
come
##ready
##usp
might
Univers
altern
Times
##74
languages
IN
longer
##ropol
##ba
Da
Oxford
20th
limited
##to
1889
Radio
soft
Haw
document
sal
leader
##ko
##kh
1860
surface
##lymp
section
rap
hom
Oh
birth
1870
changes
1880
Tim
##ips
##ricult
sea
AV
block
##MP
approximately
Wall
location
mem
famous
FishBase
hor
Columb
Post
##edic
Cross
characters
schol
get
mostly
Young
Prince
##mond
university
Ever
typically
Ill
##uct
##anus
rule
Hy
Little
complet
Ire
CN
Route
119
Jim
Jr
gold
placed
Tour
##imum
##asons
Commission
op
##ented
##anch
##oper
Men
##porary
Government
Special
##change
##poration
playing
##ols
##uv
magn
break
er
jud
training
legal
themsel
Bab
themselves
##oses
Found
##DS
Os
##leet
supported
operations
account
##bour
##ective
Parliament
Journal
Navy
purch
Mot
##ession
Media
policy
Pauly
command
practice
Ireland
centre
Line
cause
already
##DA
Swed
always
##rot
Scot
Lev
Olymp
keep
Froese
##thur
##osaur
Chicago
##ote
1894
legisl
##itation
troops
##ario
##tained
miles
towards
Jewish
##erve
Rog
hot
science
Dream
complete
CE
numerous
Follow
##onse
transfer
Bern
Jud
bene
##ARS
##alus
##rate
Northern
remains
Space
Social
Hon
cred
mechan
AN
Hear
bomb
##mus
Na
Les
##anda
Top
##eps
##itude
##izing
Apple
Dan
##AG
Net
SL
growth
Hor
words
End
##ei
environment
Alexander
##CO
deal
##put
##eland
wide
Gall
##right
claimed
More
##FL
Stev
NE
BS
buildings
owned
Kenn
philos
ISO
##aging
concept
episode
##utions
cod
Cambridge
pen
Android
##igma
Australian
##aceae
##istics
federal
defin
wood
money
Free
confl
##gypt
threat
Irish
proposed
separate
Ott
vote
##azz
Conn
police
better
product
People
council
Revolution
Vi
##rod
Games
necess
Inf
media
uses
##iot
quick
##orph
hit
discuss
Lt
passed
Johnson
##rief
companies
Official
NGC
##ishop
cdot
divid
Mir
##ny
Ray
ens
##wa
SN
##han
closed
immedi
##omer
Bob
AL
220
FC
##add
Sel
149
cust
Dar
underst
##ello
ancient
##opsis
##back
occas
architect
don
##amily
dim
##ault
chem
EX
require
##ynam
##ports
ON
eastern
##ease
remain
ess
fil
degree
attract
##urus
##aded
Ts
Zh
active
Committee
Albert
##arriage
Sand
##aka
##acter
##atum
prec
Song
signed
##go
commonly
Civil
FM
Internet
additional
Delta
Egypt
Night
create
Walk
##irm
taking
SU
prevent
Following
annual
##mitted
##200
hyd
ended
issue
behind
##ties
move
SBS
Pers
recent
contract
169
##arian
##mph
contains
##rem
Lind
##enz
##ami
previously
vehic
directly
ID
nature
diss
musical
##ache
NASA
##roll
##ati
##rob
##embly
Arm
Eastern
##uries
##eed
Jones
Stat
variety
types
status
##ken
Southern
Ell
##oro
Italy
##resp
produce
Stan
Station
##ections
property
##cean
##TP
give
mu
psych
Airport
##abeth
##osing
##amin
ide
##ellig
McC
Water
sen
##ees
forced
computer
detail
##iang
van
Limited
collection
Ur
##ambda
mel
1980s
##quar
prior
interview
##wide
##aga
##untius
##56
players
border
##hens
##oto
1885
Home
ABC
##eder
Form
chief
cell
129
Bec
##aya
##ek
Let
fif
##hr
UA
smaller
Pen
Stand
##ui
##istan
BL
blood
##astic
problems
##ois
nearly
Jeff
Way
##rang
whether
article
max
nomin
##utt
magazine
##wer
##arbus
##aily
Corn
mol
news
Enc
SD
Festival
historical
MBC
##uff
Centre
problem
##ounts
Pier
adj
cos
TBS
CV
Sa
##CT
1970s
##rison
latter
programs
climate
Williams
Vill
Mov
##ying
display
conditions
widely
pressure
Tod
##rying
poor
era
route
##ceph
director
##ality
Clark
results
edition
noted
##perial
Conf
##rupt
##58
ships
Fantasy
1st
heavy
saf
230
##VID
Corporation
date
targ
Four
Od
1892
mm
Publ
defined
1871
Cam
promin
residing
##olia
##imb
1893
pp
1888
running
newsp
112
Us
Nic
Rom
750
provides
Jackson
Ho
Network
response
cultural
##CD
##rys
secret
##shire
Bal
##2O
Xbox
Lew
largely
Virginia
Mexico
##itors
##ylvania
2nd
##war
SO
Eliz
middle
course
##uge
##igation
society
##yth
Islam
ox
address
##BO
Rem
Both
##ING
enough
210
##ersey
KBS
prison
Broad
Despite
Rome
effects
Andrew
Add
##otus
asp
Wat
likely
##ogen
mention
Dani
code
Vis
1800
1850
##aki
Az
pain
IBM
Kir
idea
Their
focus
1887
fort
##oz
##sob
division
Imp
##fect
Ram
interp
##MC
Adv
##aph
rat
Ba
laws
##iab
240
##chus
operated
##opl
match
studies
deep
##sk
##rative
##ously
##ropolitan
##ST
issues
##rain
Angeles
Fair
##HO
shown
mission
Bell
Light
Mid
mur
citiz
##adium
##uted
Matt
cer
##ivity
Common
bird
##ancy
##atab
Chap
Arg
face
hours
feature
Type
Dutch
carried
##una
Card
Entertainment
139
Ak
decision
Prime
distribution
Anth
1960s
Orig
reason
113
##undred
##iano
oil
Republican
paper
Engine
unit
Wild
approv
Si
Bor
##umber
whole
professional
Awards
distinct
1884
kind
Lam
offered
##OV
Series
1891
Ke
Ker
##enger
launched
Coll
dram
##MI
initially
basis
Id
pil
divided
Bridge
our
territory
HR
##isco
ult
Develop
failed
Var
reform
VII
love
redu
##aches
resist
gradu
Taiwan
levels
multiple
##ista
theta
##ares
##ading
currently
fourth
hyp
Penns
done
Sever
spl
pal
##nam
##iner
##olved
operation
amount
draw
##rest
##GM
susp
##ymn
Mur
Mah
Ret
##sen
##TR
##aver
1861
Anim
prem
##88
Board
737
MC
gas
Rod
##respond
communic
letter
Call
4000
adopted
primarily
economy
Ltd
commission
college
coin
temperature
Chen
450
organization
##IVE
##esh
##iated
hy
controll
##ja
##oh
Bow
behav
##iel
##acc
1886
physical
element
nation
om
student
IR
##ais
greater
##inae
marriage
Tay
Att
1990s
highly
##ifer
Field
Han
##house
Russia
##orb
##ycle
114
bit
##key
becoming
##ulated
GDP
Later
Gra
nearby
weap
broadcast
mainly
listed
Area
football
##obe
Viet
financial
##can
Arts
##kins
##ouch
Sund
estimated
##nes
##igan
##iae
flag
stations
box
Barb
technology
##isation
appears
##amm
TC
industrial
represented
implement
##edd
symbol
Conserv
##nic
Stephen
studio
AB
counter
Pennsylvania
Budd
Alf
path
##emy
1200
##ader
subs
Ash
pun
Mas
Child
Elizabeth
##oir
products
quar
poet
Three
BD
##bur
##ped
##ging
ED
deliver
DR
##emorial
RNA
List
##PC
Spain
Fe
Leon
##eman
thr
runs
##igen
##iring
FI
##edom
compos
Now
Charl
##ritic
##ophyll
Bon
117
1865
scale
brief
##aring
Om
true
##yst
Hung
##eds
autom
##isp
##hol
contem
campus
province
km2
Creek
##icted
mathbb
Modern
##ulus
suc
Program
##jo
card
directed
1881
##bre
##elle
Circ
Kl
paint
potential
##stra
inj
##pped
sens
Jon
Duke
discovered
Democratic
Human
god
##ctor
serve
Sab
IT
consum
Anc
Brycon
##uments
elev
Ven
##OP
intended
Phys
syn
##iy
##uty
##ker
woman
exhib
Arthur
carri
think
##get
teams
##worth
lambda
shot
##mission
Cop
##fty
remaining
Pass
EC
1862
##gen
rout
1848
##acing
SK
Op
sources
##illed
1882
DJ
defeated
##51
##gu
turned
simp
1876
awarded
job
ful
1868
##range
##rovers
1878
##sobrycon
##ortun
Hay
1867
Ly
concent
##amma
##ez
##een
Pap
agricult
Cas
##akers
makes
Es
##gor
opening
peace
##iate
GT
##irection
bring
spent
Wilson
Gh
Sem
##ji
##EG
flight
wanted
Master
metal
Championship
initial
vs
foot
Online
borough
Avenue
##orus
defeat
Order
guitar
##andon
Family
Emperor
correspond
inhab
##LA
##ione
##ients
Astyan
activities
##ources
##oni
experience
1864
123
1840
therefore
##eball
##ables
asked
meeting
Polish
ut
##ican
What
BR
entered
UC
##esc
##reng
##has
stay
##itting
##rim
1879
Education
Berlin
Dor
arrived
appearance
##rad
Philipp
Portug
page
##acts
##ceeded
incorporated
##isher
net
Ty
Econom
##ening
##inity
DD
theor
##heim
##BI
Tra
despite
##ansas
Zeal
##53
needed
##ogue
question
Hard
Because
##yclop
quickly
Dun
##light
##aught
##UC
##hew
corn
image
told
Band
ordered
BO
Nap
demonst
Bost
amb
charg
nine
##64
Histor
Cult
Football
##ito
Bru
Box
##100
Fox
1883
Intel
Bad
##erc
Cur
##enty
Sky
##cel
merg
quant
1863
##hyn
rapid
Du
quality
issued
going
Conc
##lers
houses
consists
##itted
121
infty
thous
measure
Also
Zealand
pict
educ
##GN
Astyanax
medical
analysis
probably
progress
urban
ran
##iques
##alled
##ety
crew
##LS
helped
hk
compared
accepted
mi
railway
native
Minn
##mas
lic
Daniel
Sin
##rome
designated
presented
rot
Ext
##ali
Cry
##icient
Health
royal
boy
##TE
WW
dial
##isters
##ochromis
1875
Simon
regional
##BE
parties
extended
liber
relatively
winning
staff
finally
##iac
responsible
benef
##wick
Muslim
conserv
Marsh
Foundation
categ
OVA
Hart
academ
reveal
##hessobrycon
Hyphessobrycon
weeks
elections
ir
Lady
takes
Bat
Main
##ining
cannot
Channel
##68
Organ
##cal
CPU
agreed
artists
comment
instit
suggested
##eller
screen
communities
depart
electric
##onents
recording
Sher
##IX
root
1873
honor
here
##mir
heart
##illy
##59
##atabase
neighbor
Lep
Scotland
management
##ova
Digital
##uls
controvers
##olis
260
mill
Plat
ast
hundred
movie
Chief
yet
##opher
Brook
inn
Mem
Jersey
##ela
reduced
double
train
Columbia
##OK
chall
Golden
soldiers
##ographic
Books
Ken
Disney
Puntius
ce
BM
Ger
##52
##vest
composed
##iable
operating
##istered
pattern
Tok
Freder
settlement
resulting
Francisco
Ku
##ansion
batt
leaving
Atlantic
Sup
##zy
simply
removed
pan
Kim
Taylor
Build
records
conver
1877
online
approach
Key
Sports
share
127
Americans
Santa
Sound
1830
Der
Boston
1874
Det
destroyed
##asty
ability
assum
Carolina
##yo
1866
Major
##estic
lif
##izations
Mach
##acher
Technology
280
distance
dead
##bs
##like
activity
subsequently
Jes
Ut
Like
Ball
drug
alt
votes
##obio
##aks
streng
appar
Kent
##rie
eas
officially
frequently
fa
Naz
##FF
##anna
1869
cells
Ok
##asts
declared
Unic
constructed
ax
disease
accom
##aters
##osis
models
##onent
dedic
towns
Magn
Hans
continue
1600
Secretary
##ighter
##lies
billion
##va
Governor
treatment
Lewis
cle
##olt
sports
constitution
Senate
flow
SR
SARS
pet
##stone
raised
Florida
Islands
Federal
##orter
1872
##overs
prote
bal
regions
122
direction
747
Rub
da
software
green
##ecting
sister
critical
pack
##ploy
Metac
mut
wing
resulted
Som
plans
##ulatus
Maria
Indust
##lan
contain
actually
memory
poll
Pict
##inson
authority
Fore
functions
##tr
tank
##ouri
administration
##ador
RS
condition
sexual
##axy
##ipment
risk
girl
Hand
foll
Ari
##inner
##oring
mess
coal
lit
chap
##ostomus
workers
Development
Treat
Video
heav
##anche
Victor
##ician
target
beta
Theatre
scholars
fell
##vin
Aud
Wales
##PG
##more
bridge
Cle
citizens
planned
writer
lat
##rical
##iph
##eces
quad
blue
notable
##teen
##ibly
reflect
ATP
##AK
hol
sense
instrum
prominent
occurred
growing
scene
Community
Kr
stories
270
Tak
grew
winter
GR
##useius
Euseius
leaders
Moon
Iv
##UT
Cos
presence
##obarbus
Information
slow
upper
uns
attended
Color
NO
avoid
##lines
capac
Heart
Ga
##eta
security
##arn
serving
Mk
Ras
combined
##ears
##ici
positive
##encies
##orning
CBS
reference
nuclear
starting
##kg
##ennis
##uten
NBC
saying
Railway
immediately
Metacritic
Real
##ogon
##amber
table
knowledge
centuries
Turn
Abb
occupied
journal
efforts
places
methods
##57
ple
serious
reject
##itage
Wars
prime
machine
320
##ayer
Sav
##elligence
normal
Cab
##enge
Pu
Polit
stop
Girls
favor
Meg
acid
##bo
Express
Summer
spect
Philip
PP
doi
surrounding
Guard
##oli
##adel
##eather
earth
room
##unes
MTV
Cha
##uber
victory
influenced
labor
Braz
bul
suggest
##sey
derived
chair
Joe
Prem
Spring
Cer
simple
##1900
trav
label
124
##idea
1854
hans
Ult
Beach
COVID
purpose
##eek
Coast
Pot
##ims
applied
fix
##enia
conflict
branch
##iled
1859
Sus
##rons
Poland
##onder
##ads
##AV
Run
##ething
opposed
iOS
Age
##asion
##ownt
JCT
perman
##obi
##abb
agreement
hat
hop
##rants
league
##ression
##chen
gained
Review
##don
cry
##iny
Several
##emon
##ionally
officers
Roll
identified
pap
##achus
eki
withd
Studio
NS
##oln
##antry
respectively
Castle
fast
murder
encour
Ron
literature
##agan
SAO
##oration
Beat
portion
##orax
##EST
Down
Iran
Point
parents
refused
creation
script
rise
Joh
Stone
weight
Ni
rob
giving
Mn
##oes
##unction
Wolf
Eric
Francis
opposition
Dark
Earl
attention
##zen
Unicode
versions
USB
##rops
map
Back
AI
headquar
content
##iser
Independ
constant
decre
covered
Profess
Chris
figure
CM
##rance
conducted
Davis
Holly
Mes
mind
6000
attend
Dam
Core
contrast
##vis
##val
##onym
museum
Prim
##ika
rules
Pa
paid
organized
##bl
parliament
acquired
stars
leave
claims
Business
Wii
##undam
spirit
Anton
charge
Front
plants
ly
Kal
##rig
recover
overs
speech
minister
##eding
1858
Tal
550
expected
##agu
collabor
##king
##cha
feel
voice
##ules
Assembly
1853
##odies
finished
Highway
equival
##ting
##ropis
Ross
##pe
##ori
artist
##lus
amp
##XX
MD
##ket
drum
granted
3rd
contribut
settled
##izes
sac
Whit
Hit
immig
256
ori
equipment
animals
necessary
##oment
##down
##omic
newspaper
NT
##odus
recently
belong
Test
sched
##enes
recognized
Phy
##rell
##itable
inside
##burgh
Low
##eni
Constitution
store
background
##istrus
Fried
Each
platform
##liest
Log
Gil
##ynasty
##br
##icine
##orship
independence
mentioned
follows
felt
##oi
Global
moving
Ira
equal
Today
friends
Early
Encyclop
##zer
##ele
##aped
recomm
##54
208
VI
Jews
Miller
hab
##erse
spring
JP
Die
##ource
##uns
##imal
##zi
##hone
Harry
Amb
##etts
Among
Story
##pton
governor
Walter
##auc
marked
OP
##tered
##aming
##umin
1856
Magazine
connected
completely
##rin
competition
##oen
Harv
OC
Holy
##ederation
leadership
USA
showed
sail
Women
##water
nom
powers
allows
serves
facilities
mig
slight
signal
minutes
expanded
fuel
650
##orne
library
##osus
Before
renamed
virt
##rugg
Berg
formerly
137
Lie
Ost
Dougl
##anensis
Square
channel
wa
dark
scientific
##elli
suffered
fully
wild
ethnic
pra
##EV
##iday
Kel
##inois
tree
Captain
damage
##wise
##atures
Nations
burn
cm
https
volume
M1
mis
Mountain
##bra
contact
Corps
il
abandon
##phi
##luded
##andy
reach
Mike
symp
1857
dro
##idi
Hold
Korea
##ounds
featuring
##rove
cho
##INE
basic
Hom
bad
##aser
Ru
Brazil
##ordin
##ubb
digital
##cephalus
##ques
traffic
##owntown
allowing
1950s
walk
opportun
##appy
Moore
##under
captured
Scottish
prin
##A1
##agg
Chem
Ah
##outheast
152
Bh
##ibb
expansion
oldest
search
##BL
fish
prep
Steve
##IO
powerful
effective
unique
Victoria
ranked
mathemat
tend
##idium
selected
Studies
##65
Pak
officer
##thing
dedicated
argued
fair
formal
matter
Fu
master
##ocks
##eton
Gi
##iations
Hind
Ohio
B1900
Ka
##ipped
Ren
##uma
Ele
##ocated
effort
Fa
##uda
2500
seg
Aff
iPhone
##ilon
Guide
##tm
Ze
Brother
1855
##NT
132
distingu
Expl
##urches
ancest
##01
harm
plays
##isms
purs
inform
nort
shoot
sites
##ieval
Nich
railroad
TS
##osen
Ocean
Walker
Syd
PM
##angle
##rh
LIVE
seem
##iced
impact
##oster
##ocy
Lin
rain
##alu
kept
adapt
##athan
attacks
##joy
Hyd
MR
Ple
See
sales
react
tried
##irus
editor
GS
Conference
##weet
belief
##IF
Galaxy
##GBT
Police
goal
pick
manager
Lut
Wang
Head
1852
##osite
##isa
##phy
omega
negot
arms
inspired
pseud
got
CL
##ocol
Hug
roll
##uris
Supp
Last
Georgia
##PA
historic
nob
Forest
Thus
##oted
Roy
aged
existing
##istical
##oa
values
##enna
##hat
meant
synt
GO
Il
Frederick
##utus
##hedral
##mad
##prise
Illinois
Kit
Original
##rogen
Rose
reserv
figures
cab
religion
seats
Bird
iron
street
preserv
attempted
Through
emphas
Orth
Ford
Hospital
Arn
CG
Lar
supply
excl
notes
151
codice
comes
##ription
##ricts
131
negative
bott
Who
Ten
FR
bold
nar
144
Short
politics
Linc
F1
##iar
extensive
letters
Douglas
advant
Samuel
airport
Dal
##UM
##acent
Naval
etc
Nob
lin
RC
Sony
Ent
hour
Rhod
Ra
##yes
Lor
Burn
cart
materials
##imon
##ns
earliest
##rong
##inia
Tony
capacity
1851
##risis
##itness
AG
bill
controlled
##ulata
situation
##rence
##mes
Your
write
alternative
Bir
##iminal
Alan
##ressed
##pson
subsequent
managed
211
Operation
prefer
wear
##PN
titled
Michigan
CEO
Bou
##icles
Tar
Tan
silver
Iraq
things
##rations
205
OR
Rain
Death
graph
depend
mountain
##com
islands
internal
Soft
municipality
forward
Design
OH
BA
##achusetts
tim
Gundam
Non
Garra
gives
##ophyllum
Ath
classical
##lig
favour
##ishes
##rawn
Six
Massachusetts
Mun
marg
gender
reign
motor
##itis
chemical
pair
Deb
presidential
##inder
protection
##utation
overall
Sunday
gar
##order
1815
providing
fields
Brig
Ern
1847
Cook
fer
rub
##69
pros
##dr
Justice
Hab
revolution
##ifically
vert
Eth
330
Edition
Langu
##ictionary
##iversary
Jacob
Planet
141
Howard
##known
Labour
Gram
Belg
Mult
Gord
Hun
dog
producer
core
Allen
Bol
##atal
##aked
##asp
hands
contemporary
##iti
##aux
##hing
Management
Et
newly
Christmas
studied
Dick
##iva
launch
Mey
domestic
Minor
Lincoln
candidate
154
grad
succeeded
Fall
Brad
Baker
myth
##otic
MO
formation
##anger
##writ
Fi
Nether
##rane
Hi
Labor
debut
ring
##ampion
split
Mobile
Pope
##FS
something
Roger
1849
##61
properties
ideas
1844
Mess
Ki
rough
bey
##chestra
RA
##ser
global
##haps
##olas
concert
133
Pierre
##plate
fifth
##agen
decades
custom
regarded
Notropis
##EP
inhabit
flu
##ilia
greatest
18th
Supreme
partn
tal
print
gard
joint
##hesis
lands
limit
McG
tail
Hell
execut
mayor
becomes
##ancing
MB
Karl
vac
Model
##ashi
Phot
phase
speaking
visited
exchange
conce
officials
wall
receive
objects
##rant
projects
AllM
ice
parall
1846
Gray
mixed
department
Dol
investig
##usc
Only
existence
ec
##aeus
##ga
conqu
##miss
wealth
Code
beyond
Memorial
Ale
Meth
##EEE
##riev
bud
##rif
##rine
Colon
executive
1841
bass
Garden
Brian
##othorax
##where
flood
portray
Security
Vietnam
refers
Imperial
HS
purchased
HTML
ways
sides
positions
##adow
##flix
EM
extrem
##rost
sought
CCTV
Jord
heat
secondary
Bang
##85
##ego
Ot
##ulate
mal
stone
examples
##eler
Billboard
##antine
Observ
ONE
resources
sets
GB
fleet
offers
price
nor
Cub
LED
democr
##HS
union
##anning
nig
creating
resident
transform
Trich
archive
##osaurus
COM
revealed
Eug
Adams
application
Moz
hap
1820
1845
believe
##bar
##91
##eline
cars
Syn
survey
tor
Netflix
else
proved
##uration
Military
principal
expressed
310
vary
stre
Schiz
##irmed
enjoy
1843
solo
containing
Alfred
Administ
Jesus
Minnes
dance
##orum
225
says
Clin
failure
Further
##aza
##mi
Johann
hospital
##ucc
##odox
Mik
##iments
##itled
Rap
Hollywood
compar
##eo
cold
IEEE
Norman
weapons
lies
Cz
##stream
Pent
147
generation
VS
alongside
Silver
column
##arus
Cra
Tu
##je
vocal
Anne
##ropri
Publishing
structures
Pur
rein
fighting
Minnesota
Margar
Ul
##fr
format
occurs
Transport
##adelph
delta
##isf
##67
doct
153
Wi
##active
episodes
##style
##acle
disapp
strugg
exact
molec
your
factor
phen
stock
illust
Well
##rics
respond
##ifying
contained
##ropical
piece
Cass
##cell
##heless
##fort
phi
behavior
##iples
firm
Report
lives
Historic
calcul
Lawrence
Treaty
Mol
##oda
Sax
headquarters
tracks
##onto
har
combat
BIG
##zz
Yah
##63
kg
##uster
achieved
Kat
visit
propos
##ige
determined
rural
albums
##iling
spok
134
wave
##leep
USS
Marie
Author
##iders
##lav
##kes
motion
##HC
Never
actions
##ithm
cru
CF
Hypostomus
##ashion
singer
Standard
Mit
##ovie
reduce
shared
Son
identity
Hou
Ban
##iplom
##89
OK
score
colle
##state
fiction
equivalent
Dur
schem
##akh
##endar
Hamp
##RNA
organizations
classes
sequence
Term
observed
drive
##0000
Hop
aim
Stra
##acement
IST
290
Saf
850
heavily
stra
CA
birds
Islander
Command
##ifolia
##rip
##engers
Data
Gab
PL
toward
##ueb
LGBT
trial
maintained
##time
##aro
talk
##gest
##uri
##rates
Cu
continues
audience
##arax
voted
invasion
##ensions
##chers
##amilton
CRH
##iful
cool
definition
vess
Though
DA
Adam
chosen
Turk
##anes
instance
coming
academic
235
##ATA
##utenant
8000
districts
##62
Philadelph
Anderson
trees
##83
step
##CC
##col
operates
Metropolitan
Nav
##terus
##chi
167
##oricaria
attempts
ste
##entially
Nik
XP
carbon
Trib
##itzer
cn
maximum
##nel
Tro
Netherlands
Domin
Buddh
##andom
interpret
Between
ru
##rees
eld
poly
##berts
rich
neut
worldwide
LS
610
daily
Ont
##uki
acting
opposite
Tam
1842
Jane
##IK
correct
Holl
htm
transferred
reaction
profile
Por
Pear
370
quarter
Bry
##EA
7000
##anga
RT
employed
Market
163
##room
Alt
stream
want
spons
Donald
techniques
Uk
##inema
Hamilton
Baron
applications
FA
Lyn
Batt
introduction
Crown
doub
Sciences
roles
owner
##hl
approved
elim
entirely
cam
factors
Vinc
importance
Greg
shall
Lib
institutions
##ingham
resistance
##illus
shell
##omot
die
Anthony
Due
##etta
Nick
causes
Kur
vent
##ecution
##kel
##ourney
inher
san
closely
bands
kingdom
##hyl
209
authorities
inhabitants
Gran
SF
AF
Hur
##unch
##ostoma
##omon
reports
architecture
substant
Firef
Cot
flat
Reb
gather
Country
##icola
Missouri
frequency
Ec
Beg
slightly
Sweden
##orial
fle
OF
Wu
ER
narrow
##mouth
opin
compris
##ologies
Gun
critics
consequ
advanced
##athy
mathcal
animal
Temple
Bib
##adi
Spe
203
Pit
bond
Swedish
Philadelphia
Server
##hire
##lyn
ISTAT
relative
Michel
Kansas
##ti
comedy
pron
1812
Railroad
setting
##erald
Balt
programming
Village
extra
Abd
strength
##inces
380
##uro
sigma
Note
unable
Ry
Ow
173
ray
Christopher
Care
arts
carry
1837
143
##bora
mir
Ps
rangle
cycle
actual
senior
Gri
PK
##IE
rare
##mers
##etting
Addition
##hard
##ogy
actor
##endo
##500
cas
Nar
##essions
hosted
registered
hall
Olympic
guns
younger
AllMovie
folk
acts
##WS
publication
##sky
shape
permanent
Bac
View
##aku
##93
Mos
##lementary
##92
possibly
Works
##ante
entry
##low
##WA
standards
##resent
##fall
Hills
titles
buried
Five
Systems
Maur
Hotel
##isted
##97
dry
obtained
142
Patrick
LP
reasons
Lept
Stock
Lang
notably
suburb
Building
##asi
choice
##agr
churches
162
157
vehicles
##HD
##ieties
##ynamic
institution
Foreign
easily
assigned
##bell
feet
Drive
edge
##AND
Korean
Bush
1700
##unc
ultimately
Amaz
PSP
Prize
238
##come
##AST
Database
##orh
broke
Dall
Inn
attacked
##rosc
##insula
Steam
##ocket
##hu
##orer
chart
Tower
specifically
Site
sev
output
Represent
philosophy
twenty
quite
literary
Laur
##orce
sun
##rama
sam
rho
estate
JT
twice
doll
##ecraft
##igg
NET
Jordan
1832
1835
Py
alle
##illing
producing
difference
ruled
monarch
learning
Lith
##symbol
##aurus
EN
maintain
1838
divers
fear
Dead
##YP
##erts
boldsymbol
##iller
212
Hein
340
exerc
777
nu
##equ
Cant
##inated
convent
earned
Natural
Mand
accur
##ERS
##opping
fought
1300
Chang
Equ
connection
fal
Link
Advent
Islamic
Cape
Television
developing
##82
##unte
experi
semi
Fal
images
AMD
humans
MOM
##uing
sport
##ete
Franklin
glass
horse
##ds
214
##HT
combination
##yer
172
Khan
Gymn
##issance
##mosp
aid
Ark
floor
increasingly
##III
tourn
##UE
protect
##ianus
Children
Bishop
Marc
flav
pieces
abandoned
##ni
drink
Surv
facility
1836
##unting
forest
engineering
##rument
Dragon
##aug
Map
mo
##EED
##hess
Century
dropped
Fab
##idents
colonial
Every
Collection
##wich
gamma
##anthus
4th
laid
compl
popularity
counties
Peace
ign
164
206
##icit
Alexand
Wa
Sac
vehicle
##edes
matrix
Lov
Yahoo
##ructure
Stadium
engines
CB
virus
##enne
##idden
performances
Kam
##acks
typical
downtown
Aer
Beck
egg
Cit
steam
##emet
Dictionary
Control
Services
perhaps
Tenn
lake
theme
pul
##irty
##bach
Pay
administrative
##ologist
##set
Toronto
##UP
Archive
##ippi
##exts
device
API
DOS
RE
##uese
Bart
1839
##umes
moment
ages
Mathemat
Even
views
Lanc
prepar
Mars
Ref
describes
##po
CNN
user
rates
selling
410
##otes
Stew
##elve
Bey
Din
##uts
Mississ
advantage
armed
Argent
Has
Here
1789
repeated
Nel
deploy
Buck
##OG
defense
Tet
Marine
SEGA
psi
settlers
fans
Ontario
fixed
sup
Russell
parallel
##ipes
Pter
##iga
GM
faith
##ART
##iola
causing
##miral
1814
##imental
##ighth
rejected
entitled
##ketball
Portuguese
Bos
policies
161
unknown
##pris
advert
Bruce
##eget
Medical
significantly
budget
tv
Iron
happen
enemy
Trust
Gon
evolution
##iscons
Scient
Third
regul
orders
bow
##uccess
Firefox
##inth
festival
##icks
##anta
voc
Yam
liqu
routes
##viro
differences
##ardo
Princess
##isconsin
Junior
##87
safety
##bn
retired
exclus
Leb
Harris
Yu
Ald
trains
Store
##ulpt
##rat
##burn
480
##ogobio
Wisconsin
Gordon
##icia
exped
rival
translation
aligned
copies
##orf
Arc
Sydney
Oak
##cious
NFL
Psych
ones
therm
Lud
##pa
Again
Communic
establishment
confirmed
improved
215
regarding
Municipal
championship
context
CAS
solid
##essed
##asa
gain
demand
##atorn
Fact
207
diam
Jay
171
##ework
operate
420
##opus
Comic
Tol
crown
##fri
height
Writ
tau
raid
##iensis
ML
BB
Gib
recept
ban
##fully
sand
info
subt
roads
Cost
writers
Juan
restaur
contributed
promoted
Gn
medieval
NM
decade
holds
brothers
##emony
1930s
Kennedy
Benn
strateg
solution
crime
##94
##enberg
##adron
ans
##aly
Pel
cancer
zone
Andre
222
dynasty
commander
Vel
Method
##asm
synd
##epis
weather
Grant
statement
Tokyo
none
sons
Metro
emerg
Engineering
operatorn
operatorname
Margaret
circum
LOV
agricultural
##ategy
##owa
homes
CT
Mission
od
##forc
youth
Whe
ca
##iat
couple
ending
##opes
uniform
thousands
Encyclopedia
Territ
supporting
##orrow
Merc
##ricon
Matthew
802
##alia
Lyc
spin
file
fellow
##ellite
##athus
Cru
gall
Bapt
draft
Director
somew
Rud
brain
affected
snow
##CH
##84
seasons
##oven
Ax
Sign
Small
##mont
PH
Fleet
1100
converted
param
shortly
bodies
SV
##urance
Nev
nick
lie
221
freedom
CoV
nominated
Jam
##angel
Las
##dale
purposes
wor
##81
Cob
##aved
Claud
decline
911
##istol
##outube
##owski
##asia
181
##standing
candidates
PA
Liberal
steel
##eria
##agle
Murr
linear
appeal
GNU
bought
Ori
##ctic
Province
Pi
##usted
##ipe
Full
##alo
##MB
Indones
Ins
EF
beaut
##bro
##rete
Seven
Cher
corpor
degrees
##YS
##asure
starred
APP
chain
Once
Spirit
##hetic
##oom
Moen
##igo
founder
historian
proced
technical
GA
multi
##din
Dance
204
criminal
beat
extremely
Nam
##ando
##imus
astron
##uties
otherwise
morning
appoint
Alice
##hyth
##khaus
standing
weak
Dog
cdots
consisting
neighborhood
ts
Protest
Jump
##emetery
##uart
les
vo
Place
Gro
genus
Winter
alleged
17th
Benj
Comb
calls
Palest
Jess
##iatus
sector
##ATION
##hors
##greg
##ularis
Fil
Template
PV
Aster
needs
223
Len
consisted
isol
exists
voters
successfully
1833
##othing
##wh
Rick
##itus
Mississippi
##ACK
Language
settle
##enh
Computer
devices
Our
leq
Bull
Week
rose
nothing
Ali
Alpha
spot
Catal
Palace
##raf
Fame
##aja
focused
Singap
##ilib
##rast
onto
##lets
##ographical
Emm
MG
##oca
arrang
goods
##irt
Baseball
dates
##icts
af
##ski
declined
note
Say
228
RPG
1400
challeng
association
terminal
##enses
straight
##idel
Horn
##rice
##etime
Indiana
Mong
##MHz
locations
Malays
##ocer
##anchester
##uled
Wright
Gulf
##uest
Pruss
requires
##wig
Fle
##osure
committee
##orage
Production
Doctor
mode
301
conference
businesses
Mountains
Fel
##uters
Mall
displ
##yles
violence
Fern
Theory
1834
1831
Unit
##orton
##otte
merch
temperatures
improve
##igenous
heard
costs
mist
manufactur
suggests
Rasbora
waters
##inction
Finn
sufficient
restrict
comic
##olished
Roberts
environmental
##amps
performing
Moenkhaus
Moenkhausia
Oricon
reading
Hud
Ministry
zero
##pora
rear
##iko
index
electron
roughly
colour
remark
Jenn
##OH
plane
simpl
adap
northeast
##isch
SW
##ounded
doing
Vo
MI
task
Historical
Upper
northwest
Forces
##ulu
Kev
##usal
UR
leaves
Viu
pilot
Marshall
Singapore
offices
passenger
visual
Wes
Deut
Czech
accompan
proport
216
##argo
Communist
taught
##UD
designs
Colorado
Stein
MHz
diplom
RFC
Gor
Local
unp
##uits
ath
algor
Stars
Crit
##ENT
Bert
##CE
naval
Rot
passes
frag
expression
limits
sed
##real
##ahl
Anal
Ess
holding
##ogl
218
Environment
accident
##NG
ratio
##othy
ET
##igram
experiment
##ovi
Bulb
##uting
IF
defend
Norm
yellow
Row
request
Dom
parish
BE
Manchester
feed
instrument
TD
##odge
Mexican
atmosp
Byz
leads
instruct
Defense
##erto
Volume
##illery
translated
Napole
##icy
FIFA
##thus
##ved
##eless
gal
merged
##400
poetry
Then
Capital
Priv
Vl
Studios
Cart
Tab
severe
##igu
##no
Blood
365
poem
Evolution
Discover
kil
recognition
##americus
adjacent
Bryconamericus
Benjamin
technique
##rose
Sex
apart
##ifications
##stal
Esc
MT
Orthodox
##UL
Pra
Page
string
components
##ulty
##organ
transition
##idus
Kan
illeg
pull
1821
plot
Regional
Theod
##eva
Mind
430
mand
##helm
wides
##ockey
Flash
##western
Switch
Philos
Austria
##pm
##GP
##icians
concluded
##vel
Convention
universities
Ky
NP
##ivals
iT
3DS
greatly
maint
courts
##inum
##stances
Kle
YO
Hawai
veget
phr
##di
##ucky
electronic
considerable
##bourne
1824
##lla
##oples
nations
Bah
710
varphi
intelligence
##incial
##iper
##aea
GE
AA
NA
depending
incident
Pic
habit
describe
principle
mort
gram
MM
Snap
Album
##kt
##eto
Ancient
hair
##ruption
265
Greece
adult
crisis
1801
##uru
southwest
##ente
##wealth
##uka
##ogram
##rous
guard
##uta
Yang
232
begins
##feld
##elia
planning
aer
sust
219
##uin
##usa
Visual
emot
Thor
Snow
fashion
sell
##eness
##ture
Ste
##mmet
lot
separated
##gebra
##atherine
Ko
##onica
retire
520
pure
instruments
Federation
coach
Confeder
drawn
alco
hypot
Soul
##icer
720
1825
RX
teaching
Sha
preced
opera
unf
Bernard
Phill
Pakistan
Wik
boundary
calendar
seems
Bour
stores
strike
DE
1829
1792
debate
users
Canal
villages
flying
##aire
Mosc
crow
textstyle
Admiral
Rey
##pread
Cooper
##pass
experienced
mouth
440
Connect
##lah
Such
persons
Conservative
useful
ven
influential
Food
##zh
Cory
eye
Ring
Warren
1806
juris
nm
##aba
Heb
corner
##weg
Days
strongly
##ido
##ghan
Aqu
Doc
MVP
medium
nucle
##dots
##omo
sculpt
H2O
Years
rivers
##GS
Morgan
planet
scenes
5th
franch
communication
pit
213
resear
composition
nav
FBI
##bus
##rik
brand
heter
##ifle
LC
tur
##O4
##inian
touch
Shan
Nazi
Stanley
linked
check
Carn
theatre
Heritage
##ls
territories
Linn
ISS
##mo
##ieg
##orters
##uto
cook
Alliance
au
Hugh
phenomen
Norway
##ocharax
##iu
documents
##unct
moral
##thal
fresh
protein
##roduction
174
fly
vel
##rett
M2
Bed
##esis
##opol
appropri
Anna
Cypr
##umi
documentary
##star
##fare
16th
interests
Virt
##ectors
rapidly
Contin
Daily
##orney
southeast
manufacturing
##anned
Orange
##osph
Nature
##antly
##pool
##aste
walls
capable
plus
throne
Friedrich
fasc
##heastern
agent
partner
Sport
Carter
##icon
passing
processes
Pyth
Rac
264
Kings
##aron
Farm
##ERO
watch
musc
217
##ilation
briefly
Deep
assumed
Invest
Pow
peak
whereas
Creagr
##lys
Creagrutus
Elementary
Ped
Pas
226
Croat
items
drama
receiving
Commonwealth
##rating
skin
Tang
Maj
Cow
MK
Nat
accused
Nag
Magic
ham
Bot
##olve
submar
##YO
##inations
liberal
Maryland
sections
bin
McD
why
Sor
Astron
Airlines
iTunes
criticism
##ische
McK
widespread
##ologists
populations
Nord
funds
##GE
musicians
resemb
Stewart
##aby
XX
Graham
hyper
coordin
Hend
reputation
NR
Pictures
delay
Ach
Rena
formally
ceremony
Pant
successor
details
Vista
situated
Kevin
Exper
advance
returning
anth
spoken
##inea
Broadway
##rium
Trade
Staff
headed
##mel
##iants
##onna
descend
Beaut
##iler
advent
##rox
chose
##apping
305
##oids
castle
Wy
Pack
Robinson
BP
##aca
1790
DM
Gill
goals
understanding
upd
founding
authors
##inate
therap
commissioned
Rights
##net
##ogether
micro
HBO
Adobe
rar
tribes
resc
storm
##MAX
Toy
legend
Get
ME
Jonathan
Prop
Wonder
Zone
Lock
##ushed
treaty
escape
##ueens
Agency
Economic
turb
replace
##omi
soil
HP
Pont
Fund
distributed
arrested
Zhang
##aints
unus
guest
wheel
nit
##UI
arc
##ertain
ow
ends
##aduate
Dest
reaching
Jefferson
ha
extension
angle
##iah
##anne
EV
articles
ster
Stre
Authority
FL
manner
accounts
imag
Verm
Kaz
Upon
Affairs
Ottoman
valley
measures
pm
1828
Universal
##opterus
##die
Chamber
Mak
Enviro
ViuTV
##lag
anniversary
determine
##omyc
Block
##ygen
ment
Cold
grade
Buff
ma
##eston
1793
##uis
thick
Bible
Morris
pione
##ranean
IGN
texts
Statistical
001
Burg
aspects
Number
painting
255
reviews
Moscow
Antonio
Knight
effectively
worth
##har
Thompson
battles
stating
##xx
Harvard
melan
##orp
Campbell
M4
promote
calling
brown
##aimed
grounds
##ication
funding
boat
align
adapted
HIV
##SL
##aling
Nelson
680
wars
Blu
239
entrance
Nint
faced
TA
##regon
fishing
Opera
Administration
legislation
Lane
Dave
1826
reality
Professor
AE
##life
Ay
yield
##Script
Bulbophyllum
Ny
trip
partnership
normally
covers
##DR
retained
imperial
grant
Mond
external
Gary
novels
Luther
Ward
Hudson
EU
234
##03
clubs
Brothers
Prior
Plus
Kon
Math
jun
1810
intermed
dominated
303
Chan
Independent
5G
Evans
##GO
prohib
ta
307
Digimon
##emat
explos
Rand
stret
opinion
Denmark
clean
somewhat
##lusion
Interstate
##lay
##alion
Hitler
Mayor
Germans
Nintendo
Ye
goes
mart
rom
depth
programme
512
starring
Rou
minute
##lock
chairman
##olo
criticized
Fac
Person
##rec
PT
##ipping
NAT
275
1822
##atically
262
modified
Houston
lect
##UB
11th
Gate
passengers
1819
510
##agh
Energy
ROM
Persian
shift
##uar
Hyper
installed
killing
##borough
Johnny
##uebec
Phoen
input
BBS
fan
##FT
##olor
losing
Alc
Pir
Region
Born
try
testing
##icide
practices
Turner
streets
##know
movements
description
employees
##amine
Ral
Player
Tenness
Know
Unix
Liu
##tha
trying
##cho
capture
carrier
trou
229
Hook
factory
bic
sort
##optera
JAP
227
Bath
##inding
recru
640
IL
Youtube
DO
arrival
constitu
occasionally
learned
ARM
Culture
survived
Tib
showing
Wing
jurisd
540
fired
Liter
rebu
Afghan
Pil
##jan
Baptist
##hips
##outs
##dy
teacher
##apes
Brand
pH
##boy
Sau
##met
Ian
##rehens
##pent
vast
##edge
##ven
ideal
Wilhelm
##olph
classic
##bird
emperor
bed
message
1818
Tennessee
375
##chell
credited
cards
LOVE
really
Oklah
Ig
007
meg
scored
##opped
provinces
Imm
frame
install
twelve
##ulum
Brun
educational
strategy
restored
224
perfect
regularly
hero
1804
protected
##hythm
plate
Cir
##T48
##onian
##ranged
circuit
prol
intel
representing
Father
flo
A1
governments
emerged
Murray
##actyl
colony
sixth
enh
bran
attached
prepared
VR
##sex
inters
ago
##ench
1813
warm
tournament
Pin
Chrys
Chel
##fe
Barry
Side
##ECT
##hynchus
##vious
Oklahoma
ln
Edge
affili
##atern
Additionally
Cycl
##otype
1795
forming
WHO
Sev
sale
ped
##berry
tower
Baby
Reich
233
terror
charged
Cann
Oregon
##etes
existed
1816
opportunity
Living
Fan
Mean
##theless
resigned
rend
##O2
audio
exception
bottom
IM
Neb
FS
HE
Base
Nation
grac
Curr
extent
Unlike
##olid
1803
##nh
concerns
pages
door
Steel
##actions
Reference
Neg
Commander
cot
composer
delivered
##unnel
##lov
##chang
coastal
##pective
category
Mediter
Electric
##merce
massive
Anglo
Sid
##oba
landing
conservative
##lon
Guy
Lost
discovery
catal
Software
Wels
equation
1809
##ognathus
deleg
##Sp
dismiss
constit
Swiss
1776
involving
##orses
Similar
Gallery
Ric
##hammad
##ICE
Myst
agriculture
vul
Joy
strict
##odium
251
switch
##lie
##ishers
Freedom
depress
Phyll
intellect
##etus
Exp
Rest
engaged
DB
grown
brev
expedition
JAPAN
##eda
##uality
Boe
##fish
##onom
##anny
Season
##ception
##rieved
##dragon
Clinton
selection
##ommod
401
represents
##tery
249
Gabri
diagn
Fun
2024
professor
Diego
##night
##achy
460
satisf
Cond
Creat
Right
Cathedral
dx
controversial
##lar
##icut
filled
##eno
##oga
achieve
Kelly
##dam
accompanied
proceed
nickn
Cort
##heus
innov
Snapdragon
visible
hers
participated
##ocypris
1791
Mediterranean
##achers
committed
processing
absol
242
Asp
transportation
grav
Lepid
Symph
390
advoc
visitors
950
picture
Rin
minimum
charges
Mojo
baseball
##erted
Hello
Osc
Armen
fine
Vice
T1
##eas
##ersed
767
tact
looking
extreme
Israeli
scheduled
piano
Pt
collected
Peters
##ners
residence
tall
Steven
787
##arius
Goth
##sa
resign
Around
supposed
geomet
commemor
surr
##rator
archae
##arc
##iege
util
##E48
##HA
SG
hal
characterized
##uy
2A
eyes
##mund
assass
H2
##do
ahead
##HI
undert
orb
##illo
mining
periods
Kin
##oka
Kiss
Schizothorax
WWE
divisions
driven
heir
##anum
##raine
Motor
333
batter
##brid
foundation
##avalry
Jose
##rag
1805
##cht
Hemigram
overl
explained
gradually
##ophora
Ic
Vik
dominant
Beyond
bat
##AO
subjects
mental
Cyn
Ti
311
mountains
Satur
fict
1799
1920s
genre
GC
Within
markets
theorem
sover
##arsh
325
Hunt
classified
##apolis
870
##udes
hosts
witness
refuge
ocean
Reform
jazz
Trav
##occ
evalu
Edwards
Hey
stress
##iri
broken
singles
vow
Ton
Mrs
damaged
Egyptian
ell
erect
liquid
1798
aired
Henri
shaped
traditionally
##uman
trading
purchase
vec
Ryan
241
borders
6th
Boys
Schm
vice
##emic
Jup
##ellion
Rab
IUC
Lieutenant
sympt
##ermann
Where
1807
retail
vector
Lear
##978
##ancell
dating
##gressive
##going
NY
245
carrying
##ilit
benefit
viewed
treated
Welsh
LA
stands
banks
IUCN
560
Lloy
312
tests
##IST
accommod
Lower
Sr
1817
na
304
component
##itarian
MUS
957
controversy
indicate
ensure
celebrated
285
decor
depos
##while
##ographer
Sut
Bear
landsc
Register
##ocent
##enson
##rand
##ribute
generated
Opt
501
attributed
lyrics
##pet
Action
moder
speak
GPL
alleg
##2000
1827
scholar
Chair
personnel
domain
##ooth
acknow
increases
Falls
##apse
530
##ivation
volunte
continuous
Mans
cited
2D
Allied
##angerous
7th
resolution
membership
rightarrow
annex
2025
M19
##iop
##oku
initi
Emer
Set
Lan
##icum
contest
Lion
awards
##abled
##TL
Griff
recre
Kun
Plant
Isa
Lad
highway
##aco
Schools
honour
Mig
traditions
##ener
investigation
enroll
cyl
##iffer
##attan
Mozilla
adding
classification
layer
##opy
encounter
##adt
##bow
MIT
Sug
##alin
1644
##eway
Warner
asc
Nak
strip
Future
##ophila
Jimmy
Much
es
UP
XV
Mix
Next
Ve
1802
scheme
Sud
Parad
Flight
Sarah
Slov
Ronald
hired
actress
Oph
##ials
##zo
responsibility
Andr
Norweg
Lob
patients
soul
bear
##ucks
1775
##town
Medal
##onus
##away
adopt
error
Collins
ESPN
orth
NEX
1823
##apers
##ultan
flows
##odont
Carlos
Borough
##emen
Dak
Rut
##ppen
valid
flights
representation
principles
Tot
302
Hunter
franchise
Shaw
Christianity
html
##ripts
powered
Nicholas
li
##enburg
##olus
links
Bald
row
Serb
Bowl
263
##ixon
choose
Billy
investment
Alab
obl
Oliver
252
Poly
##ASE
herself
##DE
##iao
Connecticut
Bomb
Salv
Sig
mobile
perce
Austin
wire
Storm
fled
1758
##arin
1794
##iciency
##acht
withdraw
cable
fur
##ossible
Mll
fruit
UT
313
bes
mas
renew
random
intent
Harrison
Protestant
duty
magnetic
hundreds
TCP
MH
Sak
##avery
admin
Louisiana
231
##urring
HTTP
Ice
##amental
306
Gir
##iration
##ictions
lock
stadium
affairs
Instead
changing
Organization
##idges
surviving
Roos
999
##idal
assemb
temple
##PER
frequent
proposal
Xen
Lloyd
tick
B1
Jacques
rig
mail
253
prompt
Bes
##ischer
Lux
237
Mario
indigenous
predomin
Ng
Orchestra
##zona
theories
TP
questions
##roit
destruction
##ographs
243
convention
Fate
Trad
tools
drop
eat
peoples
Phen
470
excess
humid
Watson
##rastructure
VIII
Terminal
Transit
consult
Bron
Happy
supporters
Near
invited
Word
Discovery
buy
##enda
thousand
##lington
Parker
sleep
##ifl
variable
loyal
Caes
Nan
rm
MAX
##usalem
##endron
SEED
stopped
1808
STAR
##father
insc
Urban
##apped
mounted
Napoleon
Iowa
neither
networks
Yellow
##ogaster
##izer
vision
roots
PAG
Sweet
manif
GL
transmission
Lip
##ularia
10000
##ront
Switzer
258
##ses
Clar
singing
Indians
multip
##oj
ASC
STS
##phab
biggest
246
Had
spoke
##uez
mor
diff
##300
interior
Kentucky
Movie
Double
630
regime
recordings
McL
Hig
huge
Explorer
clin
MiG
attracted
Grey
profit
diet
Democrat
unsuccess
##force
##iscus
Vincent
easy
oxygen
champion
Hungary
historians
521
##ardi
NCAA
Manh
Medicine
duties
Herbert
##ocarp
DT
##02
ll
Barbara
##oust
radical
storage
characteristics
fundamental
Jerusalem
Anti
machines
Hub
stim
Newton
Barn
##odia
credit
spiritual
Legisl
OCLC
##agi
Mother
stood
##DB
conj
proof
Nash
parent
Arnold
lob
hem
mathematics
Cad
requirements
##nia
960
##evelt
##Sh
Kirk
athlet
LG
248
appearances
##ephone
gross
relation
##asma
##ivan
secure
maps
##rent
Raf
Ridge
254
Switzerland
Malaysia
PI
KC
minority
lingu
partly
##load
concentration
mob
Apoll
##lications
Executive
satellite
longest
edited
portrayed
enl
TG
##hell
##ocheilus
skills
procl
Keroro
premier
genetic
Tax
apparent
residential
Heter
municipalities
Amp
algebra
Marx
adaptation
Brigade
Acanth
Hil
tiss
Bio
trust
lasted
13th
##encing
surf
ADHD
Clay
##sche
begun
annually
Gust
Hipp
##anks
##bridge
reun
Product
Vent
315
substantial
provincial
Pul
12th
suit
##olith
encouraged
Norwegian
owners
Lucas
Wayne
Jason
slaves
mit
styles
chance
##ultane
Pav
industries
##tenance
anything
618
journey
jobs
Roth
knew
##aru
##antin
Das
Hemigrammus
inner
occupation
308
upgr
Political
##SS
##bes
Democrats
##endment
Leo
Put
##aware
usage
##ensional
assembly
Metal
Roosevelt
GPS
bacter
##uer
stages
trained
Saturday
Trail
executed
radiation
##annels
shel
SKE48
LE
stable
false
XML
##gate
986
Otto
Zero
##bal
##etty
UF
Altern
Lac
relationships
aur
concerned
Oste
Bud
Aedes
##aton
##pi
##arks
alcohol
Holdings
milit
essential
weapon
raise
##itual
Nuc
##aska
##rier
printed
politician
ISBN978
corresponding
SI
tells
reconst
prisoners
preserved
##esia
UE
Hemib
arranged
271
True
infantry
IA
##place
##ochilus
neighbour
##orporated
Ghost
spaces
Turkish
TW
driving
Eis
318
##kee
empire
LTE
Mack
neutral
Cand
Survey
##orous
Fisher
practical
##omorph
##ESS
argument
SNH
Dim
indicated
admitted
replacement
Hat
Movement
accompl
Hindu
10th
behavi
##olds
Exam
##raham
Arabic
winner
Haz
Ein
detailed
truth
py
medicine
rarely
Late
##lete
##zing
thing
actors
Bug
15th
Premier
##agues
passage
Diam
236
clock
##enez
recommended
##heng
1796
Rio
voting
surg
##cia
286
##ublin
hill
Vienna
Catherine
Esp
pitch
Advanced
metropolitan
losses
1811
ownership
branches
323
surrounded
Leonard
spac
##anner
EL
FN
##ighters
Jerry
##ester
##igs
assistance
Start
disorder
evolved
coalition
interested
Liver
AH
4G
3G
partially
girls
Julian
Shin
Sull
##ocation
287
Ub
Portugal
contributions
Pink
expensive
Less
##mith
abst
mineral
Talk
Colonel
hunting
Philippines
hotel
Sic
##track
intellectual
offering
##RA
Machine
##fa
B2
268
##anthias
##ricted
copy
boundaries
judge
##umer
Herm
##ichi
charter
immediate
LCD
Frances
Senator
SNH48
##TER
Legend
universe
Og
Edin
Chaet
OM
Stage
scientists
##CA
##atra
##roch
1780
parks
##anni
##abla
CIA
257
Springs
Emb
Event
barb
lists
hang
Crow
##nik
##udden
Charlie
covering
##uh
Commons
tub
##oco
A330
Harold
244
Taip
580
hant
seek
interpre
Sz
understand
Puerto
Comics
dual
assault
E3
wine
possibility
cyc
Associ
##onda
electrical
vessels
##ffee
obtain
commit
percentage
canal
Butler
Fly
Python
Industrial
grass
Orb
Holland
Fitz
superior
##ilab
##quis
sit
Record
absorb
solar
##vet
##oderm
Tob
harb
equipped
Gilbert
Peninsula
Clev
Austrian
##ellus
Hir
##wall
##iami
Relig
chrom
RB
##then
Support
Fat
Peng
288
patterns
DL
involves
centers
variab
660
##TO
##ribed
Hann
##ynamics
Dia
281
Architect
Arizona
Byzantine
Curt
Gregory
##forcement
salt
266
fert
##eals
ISSN
##ivated
calc
##osy
##cription
Maz
save
Representatives
prices
Pod
BMW
277
alliance
threatened
announc
##idens
##psilon
instrumental
filmed
representative
##cing
##prising
##inite
##stan
Regiment
KO
Olympics
Dallas
cann
struck
Infantry
Pok
cous
implemented
##ibl
lowest
camera
##olar
780
Ja
experiences
bringing
invent
veter
wet
##frac
measured
dated
physics
##rection
Grove
option
nut
620
swim
##ancellor
Chron
sugar
Paral
chlor
Squadron
##icate
Christians
Alabama
Monster
immigrants
##achi
finding
fest
##ails
##issa
config
##oris
272
Gaz
eggs
295
apply
Greater
Detroit
Hob
ol
phrase
Antar
tempor
Ord
Shah
crossing
##obrycon
publicly
grap
405
##ierra
elementary
preferred
ft
retirement
Until
Finland
fictional
Rogers
apparently
##wald
BAS
##ateur
constitutional
Proper
didn
operator
Hungarian
cul
##borne
##ishment
efficient
agency
circle
mechanism
Perry
Manhattan
universal
mechanical
reduction
Hope
session
Heaven
literal
Prix
Elev
dependent
##tex
explicit
LD
Belgium
##obacter
Miami
##lik
Vern
symptoms
racing
Indonesia
Train
##gers
##umed
agents
##ugby
heads
denomin
RD
##chin
expect
deaths
Danish
kid
distinguished
Aur
Nep
Vit
consp
##lett
810
##asant
slave
##eenth
##PM
originated
Phoenix
##ricket
tribe
Amazon
worship
247
paintings
##roke
##iveness
Init
cup
##yard
entertainment
nam
nabla
PAGASA
Nu
Stri
##OSS
captain
1A
breeding
Watch
Hebrew
##imore
##ACE
##ensed
FO
Theater
411
490
670
1783
interpretation
Take
channels
##osex
justice
Terry
##icity
Article
HMS
signs
Enterprise
##auer
##stris
matches
lib
roof
Gamma
261
Mini
driver
Physics
unusual
Andy
Level
412
9000
TE
cabinet
880
JA
##lude
parliamentary
drew
nest
##iest
##RI
denied
Those
Kw
safe
##ingly
Phone
##rehensive
Cemetery
explo
benefits
Seb
278
RO
Melbourne
temporary
1787
##N1
962
##ificial
identify
orbit
##edding
Cleveland
Edinburgh
Chi
##abe
##UK
##ithe
Arkansas
##born
316
##weight
tone
obsc
269
historically
boats
Pad
fat
##esch
Dean
3500
##eville
##ifies
##raction
export
##ryth
##oshi
##agus
##odendron
sharp
Thunder
emergency
Cord
Franz
Liv
##hent
##etch
Source
Dennis
Phi
Turkey
Therefore
625
teach
persu
Poll
##sea
Neo
HO
309
Lon
##encer
volt
##aled
Euc
Tibet
Bit
Website
remember
balance
Princeton
Virtual
Slav
##hynch
engineer
415
##abilities
Gene
wrong
##heil
##ags
##pping
writings
##etical
simultane
dot
##rors
##OCK
propag
##aman
Verlag
Lex
protest
1788
tube
papers
foss
assess
Reserve
##itime
absence
##uca
##rity
##arth
##oslav
FOR
fib
conventional
JS
##ornis
Nova
remove
atmosphere
Ober
supplies
##ーーー
Classic
Robin
segment
IEC
colonies
##ailed
##car
Eld
mamm
algorithm
TF
Clarke
republic
explan
Bond
Mut
assistant
pool
274
lov
##brev
Bod
Shakes
continuing
farmers
##keley
##ortion
getting
Jin
horses
appropriate
desire
Ralph
820
computers
Past
##ried
Dub
##minster
debt
tet
386
RF
14th
##atha
Friends
Mitchell
Study
##afe
poems
M16
array
origins
ampl
##break
doctor
horiz
##opal
volumes
Patri
convinc
FD
##rav
Chal
##helor
##imo
climb
taxes
artillery
##mill
ng
tanks
mini
Raj
WTA
##pear
##erk
employment
##eca
##ANG
RAM
##oked
Celt
coup
319
shop
Drama
321
##ieri
IX
Access
send
illegal
sight
dress
publishing
##emann
Charlotte
Branch
Mats
1750
Cultural
integrated
DV
depicted
ritual
##ju
Places
defence
Bri
##ikh
Rhin
A2
Voice
coverage
##othe
meetings
discussed
##iji
Gw
outer
logo
particles
SUPER
##anthes
276
Dublin
Arist
guide
Nem
Gam
IPv
Honor
cultures
Rout
##ipedia
Chart
injury
Schw
ruling
chapter
distinction
writes
J2
drugs
Pitts
ov
IATA
hence
##quer
##ifol
##ipher
Bass
296
approval
produces
weekly
nomination
bishop
ing
##zle
Rivers
Nom
Agricult
newspapers
FDA
fit
mbox
Larry
Occ
praised
Marcus
challenge
Woman
##mail
courses
jump
inaug
Camer
caught
S1
basketball
evening
##point
chamber
SB
Tradition
Fem
Lem
Shakespear
##egas
exposure
legislature
##avan
participate
reforms
Abbey
##innis
characteristic
discussion
##inis
Berkeley
Liberty
Communications
##inensis
##after
matters
painted
##duce
Lisa
ICE
Rus
references
Tun
##IDE
infrastructure
KK
Inv
predecess
kings
patron
shares
disappear
##haw
##quad
338
reducing
childhood
Diet
279
Eff
##ovich
Wag
catch
259
Wiki
unlike
757
Territory
Thr
Chin
canc
##aha
##iry
Serge
dream
Collect
Lis
graduate
abbrev
operational
1770
010
Rang
induct
PS2
casual
hits
tourism
##endum
##ME
601
arrest
##rophy
##ancer
Butter
experimental
##acon
357
Lamb
dies
involvement
##enton
Harper
Diamond
Palm
Symphony
##nm
Oscar
ceremon
memorial
840
replacing
Species
HKT48
conscious
21st
discont
##avia
possess
345
Cod
SIG
Soph
##illes
Youth
M3
##aculatus
consecutive
acknowled
Speed
pregn
gate
##onc
314
closer
##haus
seeking
TOK
fant
##estone
themes
maintenance
Nobel
##iflora
Aviation
Rat
##andal
##case
Josh
Section
dimensional
quantum
styl
Param
bell
identical
playoff
crowd
##oured
1797
690
graduated
educated
MOD
Turb
shooting
Wel
flex
##anton
gay
essentially
##hill
##riptions
1645
phon
Madison
Baltimore
researchers
Ship
diverse
TVBS
boys
settlements
Together
Sultan
##ARA
##ailand
Springer
demonstrated
bright
legislative
Trinity
##tes
Muslims
273
enjoyed
Raymond
930
colors
##rency
McM
##archy
Harbor
T2
Fight
##LD
iPad
Kab
repair
Mort
##ushing
WE
logic
TB
##imir
##IB
Return
Dy
violent
##ouver
Walt
jap
adults
1650
Alaska
Biography
Buddhist
seventh
##acea
Liverpool
Chile
elsewhere
##icul
Policy
Helen
##ylon
Abraham
MUSIC
Muhammad
355
wounded
rising
##itals
dispute
LR
Oliv
clearly
circumstances
LINE
##Force
convert
EA
324
Raw
##uses
Gay
missions
drawing
Look
##arant
Wald
##etti
Profile
Ernest
Taipei
Heinrich
Renaissance
Tit
Basil
biography
##rait
everything
##ASS
Chapter
gang
Mick
Ri
2030
submarine
299
##IME
Wol
myst
4K
CON
Ivan
tow
Financial
brig
Boss
##rift
ICAO
##ppe
hardware
sample
##iza
secretary
movies
categories
cogn
##iden
##erb
prox
missile
EMI
Gem
##abil
hun
##opteris
##ibbean
Arena
completion
##oons
##esp
730
##fficient
spir
civilian
Defence
Broadcast
meat
statue
Campaign
animated
finds
##org
1940s
speakers
Basic
##GL
teen
Kenneth
Ages
labour
pictures
Monte
Got
relief
throw
1778
298
##hm
subd
decisions
Pale
Cou
AAA
Lap
signals
agree
ldots
Franois
Pearl
suitable
##olition
Oz
##arum
##auss
remainder
Boeing
tool
##occus
267
583
Nine
Caribbean
experiments
Chand
victims
##ods
##aughters
Intelligence
hydrogen
forests
NATO
keyboard
qquad
##antis
##etary
570
TOUR
recip
Originally
sudden
Along
Arms
ASCII
Eagle
Must
##rof
##ishi
perceived
wings
mainland
Crypt
Stuart
Linnaeus
revenue
struggle
Furthermore
Any
learn
heritage
amounts
Richmond
282
910
Fram
TOP
impossible
airline
Susan
##NO
strategic
oriented
590
filed
##ifted
385
##agers
Labe
Gly
subsp
Lenn
Mann
rating
DSM
##eli
##core
1640
Gru
Shel
Jar
plain
falls
offensive
Ferdin
Lum
##orders
335
##pus
Alp
diver
understood
Vlad
##upp
responded
425
##ARD
##ophical
Round
Tech
Introduction
mathematical
dialect
waves
femin
CH3
exposed
Rid
tvN
##ourse
dict
##roe
claiming
Memory
restricted
sa
##idia
syndrome
830
Tree
860
Cel
reportedly
Pun
Gast
gran
Wallace
aqu
##INK
connections
compens
stayed
Dakota
##sters
symmet
argues
Hughes
BCE
fold
1080
survive
Maxim
##lem
anch
Smart
Geoff
284
Kap
affect
##amus
ranging
UH
##idency
shore
slavery
##folk
Grace
##UND
negotiations
##onymous
Cool
tell
##orious
repro
garden
##illon
Kath
Seattle
2100
connecting
env
Lag
##lication
##reement
sounds
##iceps
execution
AU
VHS
Cube
Maps
##amese
760
Carr
##onotus
advice
exhibition
##kov
broadc
window
langle
polar
ton
##urst
##ieth
##hyd
rh
files
Orle
##ALL
##ucus
establishing
##ailey
variation
Luis
Hawaii
##yz
suicide
289
locally
##esty
turning
Tong
ninet
##ingen
probability
Dear
##incorporated
##IGHT
Gent
vit
proteins
Room
Romans
tox
903
Glen
##dess
Neil
##oko
NHL
8th
inch
breaking
##body
variant
Buch
entering
##graduate
FIR
locomot
fluid
sav
corporate
WOR
elder
parad
condem
ancestry
##fire
elong
Mason
Socialist
1648
Typ
therapy
dangerous
Vers
shock
Cole
Ferr
Index
Universe
margin
Still
##floor
Wells
GHz
ris
Circle
neighboring
##hev
##agger
9th
##sburg
Chu
connect
tort
wooden
underground
Money
AIM
biological
happened
##amph
Shir
Athens
Atlanta
##uttle
##RS
concepts
convers
##acre
##ayan
Craig
Afghanistan
##using
tourist
cloud
appearing
grades
deriv
keeping
317
334
ranks
##onomy
Bright
Confederate
##uant
406
##rupted
representatives
Scientific
theat
##ulating
##akia
invented
Mega
Meanwhile
##bishop
##iere
gene
punct
##ommunic
seconds
##ocity
387
pa
##ifera
unless
HM
##ghai
neck
356
GD
##world
noise
Categ
##eters
Thailand
concerts
Duc
icon
283
Sullivan
coins
Saxon
Shakespeare
Dipl
Ming
mild
##iformes
Powell
analog
marine
tab
Sierra
Fif
Leop
rect
Gabriel
1777
ranking
CW
memb
##itudes
##ennius
Coal
##plus
priest
Spect
influences
Odont
Travel
theater
ready
##rs
Ground
exactly
consumption
##ashed
##yne
##bu
Mob
phosph
fab
##aders
Vic
hub
##err
supports
ba
cattle
##orhinus
APG
##omycterus
Argentina
707
ty
oct
precip
Orleans
implementation
Isaac
##ilst
sentence
Fang
indicates
overline
##ril
personality
MX
Asc
##EX
accl
##uba
Shadow
blocks
communications
Bonn
ps
alphab
Integ
404
486
beach
Vocal
##ouses
Marvel
afterwards
organisation
Pasc
##mingham
##esian
##eor
##employ
license
Beginning
rational
Montg
##PO
##teenth
nep
Steph
funded
elevation
Mul
352
steps
##ugg
1661
Kra
hope
Ancistrus
illness
descent
Bog
Dend
bay
##aze
Kil
Friday
Process
##ieu
compete
Maine
cavalry
##bps
conversion
aimed
293
Dum
##tus
stead
Autom
Pom
##law
##700
Birmingham
Kol
database
furn
##inners
Fres
Sri
suffering
Kill
##A2
rooms
##antha
Hav
retreat
Acheil
##AME
traveled
Rolling
collapse
collaboration
Eur
##helus
erected
##eded
ion
Acheilognathus
##Br
pup
Beta
ceased
##ensively
NMB48
Style
Vas
faster
##etz
orn
anyone
1781
FF
Keith
vocals
Trichomycterus
NAS
##iens
Gang
##assador
producers
Romanian
Tat
Ted
bron
rum
##ilichthys
Independence
mine
tomb
Sans
##acker
##ideos
Archae
Morning
Cinema
mainstream
diameter
jurisdiction
Utah
Professional
##aran
##esta
Songs
Myc
teachers
CSS
##04
##operation
##otyp
740
Gas
pin
##PR
falling
farming
guitarist
Jen
mg
Au
encl
##orhynchus
Astro
##inep
291
Westminster
Maurice
##Ar
absolute
Anat
revised
Sword
distinctive
Colomb
ruler
charts
485
##eloricaria
pub
facilit
##ving
integral
hier
##ARK
MAC
Franco
##ustom
occasions
sole
Meyrick
pir
##edict
615
journalist
Ludwig
Why
restaurants
##levard
##emed
Champion
landscape
##imer
Member
Plect
##amas
Hampshire
Spencer
ni
Analysis
Environmental
Performan
##lia
Opp
renov
##anon
usual
VT
327
beautiful
gone
15000
reserve
Spir
Omega
Rhode
Rank
2n
##PI
322
Sent
##acu
##chest
343
292
excell
OL
prey
Ich
Ster
##icip
294
##isan
##irk
Technical
GPU
980
assign
advis
cousin
SIM
Kom
Seg
tape
thin
##ffer
sky
##unus
Chall
Private
HTC
merger
Table
comparison
Sad
Resp
##olly
moves
Training
##05
SHOW
JavaScript
spending
##agne
Epis
Lords
explain
appointment
FX
##MAP
loop
##ungs
cy
referring
Rhododendron
Tiger
##OME
arrangement
slowly
##ocese
democracy
O2
displayed
Hus
camps
chronic
328
load
##ijing
tribute
recovered
Athlet
##acles
variations
Pick
wider
interv
Bund
Cloud
thirty
Ukraine
Cosm
Cav
vic
shut
Laboratory
Nevertheless
##ogan
permitted
colleges
##asis
##auge
continental
gov
manip
##oyage
WC
Wor
Joint
##oux
compat
1785
vertical
Philosophy
legit
##INA
Soon
Sah
1622
ZERO
Lil
Typh
Caesar
promotion
aspect
exercise
Nok
##ilibili
Edmund
##YZ
RAID
##oker
Maced
1786
isolated
2600
Beh
consolid
describing
354
Ferdinand
##oer
##uen
Exchange
Mnet
Throughout
##opt
wealthy
402
concerning
##df
Norfolk
Cin
##pat
Stevens
Cameron
Bristol
Wake
##ancistrus
LL
##yx
Bak
sponsored
Bloom
MMC
superv
##otia
torn
artistic
recommend
fewer
banned
Carex
Gamb
Mend
cosm
hearing
Labeobarbus
##ourt
monaster
governed
DX
##exp
Finnish
barri
##ogs
403
voltage
finish
##101
funeral
aw
AW
structural
##izz
1760
##olving
copper
Stanford
Mail
Yug
releases
Montreal
orchestra
##unar
congress
Joan
instruction
reflected
Rineloricaria
##span
Crus
returns
##ivic
rhythm
Brooklyn
##yi
shopping
##onald
##writer
Aw
Tyl
gent
guarant
Concert
Blues
Zen
evil
agencies
##08
telephone
Kids
Cut
##aa
Kos
##2C
Unc
1784
Viol
Revolutionary
BEST
##ilty
abund
Nac
allies
Shortly
adm
Self
1763
functional
##orin
flour
departure
##eu
Members
617
organic
Plaza
crossed
facing
emphasis
chi
relev
monitor
descendants
##iture
define
VF
Kay
##omery
Touch
##itic
desert
##tz
##ibraries
Protection
torped
exclusively
Soccer
##NH
tied
Glas
Kid
##enos
Shar
##OO
Yan
knock
Search
Viv
opponent
1774
985
joining
##TH
##ede
Isab
palace
Gear
fighter
morph
mRNA
x86
clim
flower
varies
##VIDIA
deck
Niger
VC
770
Bros
Break
dt
recognised
Florence
Giov
ND
##chaft
##entation
turns
accord
Teleg
Eleven
dise
##cott
alter
##ECE
PCI
Kum
seemed
378
##boro
Finally
waste
##neum
##works
Apollo
##ellia
deployed
canon
crash
shops
commanded
coat
tropical
384
PE
Vanc
cruc
Retrieved
cash
manufactured
Ace
Continental
helic
swit
Produc
MPEG
customers
408
Classical
Asper
tons
##ospora
435
aust
Harvey
GF
Thomson
##arr
interface
##600
leuc
Single
1782
##rightarrow
tot
faculty
Cardinal
Shanghai
##appa
Coel
revival
Justicia
Beng
discrim
Dod
##mun
Complex
portions
##master
##uous
toler
##SE
coron
##oqu
505
XM
beliefs
##anian
Chester
Ful
wel
Flag
radar
burned
Owen
Rol
succession
publications
march
Dre
finite
amongst
kilomet
crimes
trail
##icing
penal
Rush
Sou
Trip
devoted
marketing
doctrine
possession
##icated
compounds
##hum
Flying
##rise
##achment
initiated
##arked
shield
Atlas
Crystal
KA
giant
##izard
Graph
##irostris
Ling
earthqu
tribut
##opot
Honey
ho
Beau
Beijing
stem
CJ
dent
##rage
junior
##idt
2000s
331
landed
milk
##geon
WR
wearing
3A
A320
consistent
Guardian
inhib
extend
417
Hed
336
punk
clothing
##ricane
defensive
1772
##pin
##arte
612
Yale
Merr
dollars
contribution
epsilon
select
behalf
missing
407
Kre
thinking
##oirs
Kas
Chrome
Beam
crypt
Montgomery
Come
Price
hole
##ennial
353
warfare
acquis
681
grandfather
##elin
555
##ephal
concrete
noble
##uo
##former
Saud
armies
subsidi
##dal
provision
compact
##ci
ordinary
##emies
##cts
Lec
Jung
handed
ble
##pert
Body
##isi
hypothesis
359
merely
Jazz
##onduct
##acin
Students
Agr
opportunities
Phillips
notice
phone
344
VL
##lass
prosper
Category
Performance
horn
tan
Compan
uncertain
Cec
subc
Symp
dramatic
marks
##sequently
Heights
0x
Kind
WS
Auto
confront
##nus
strengthen
mines
Senior
FE
autobi
Salt
Boulevard
NVIDIA
borrow
perm
disag
Anders
Romania
Delaware
ranges
Oil
Cell
DNS
uncle
711
editions
jp
##obius
enthus
POP
Portland
removal
Peck
RAF
tar
dots
pointed
Object
326
##imi
unincorporated
##oneaster
Singer
ongoing
patent
Eight
siege
##oking
Epinep
Cotoneaster
431
##ishops
Nuclear
##kon
Vancouver
Sarc
Dry
depends
##rina
##iformis
511
##eries
346
territorial
procedure
hip
##oras
Operations
Gy
Fra
525
Factory
occasion
neur
profession
Insp
Iss
exem
Sons
Vul
bull
Large
Advance
trials
ye
##pled
Officer
Eb
yards
Trump
prince
Warri
coinc
acted
expand
Hap
##hoe
##inking
Medic
referendum
Manuel
Rico
Yes
scatter
democratic
KB
pump
1683
excav
##EEN
daughters
Chemical
diseases
communist
Greatest
participation
907
gracilis
##oidea
##iffs
Scar
Valent
patrol
Wend
Text
##kar
395
Jak
lakes
Stern
unemploy
Aircraft
happ
fram
361
Picture
advertising
Him
Change
electoral
fus
Battalion
Doll
Generation
Beth
Bobby
Ya
moon
rice
##fly
elabor
codes
intention
##oki
Southeast
##iata
Paper
deliber
fir
worn
Rav
Tru
Transportation
##onomous
419
##igon
Crime
diplomatic
##insky
Squal
succeed
Ran
XIII
##uj
##gow
corruption
##ht
##apia
reverse
donated
UM
##omber
##ipt
##rae
Suz
junction
subsc
surgery
bid
rebuilt
##ifts
sweet
##acco
rebellion
Victorian
Safety
Titan
induc
gods
Wagner
Syria
conservation
Lakes
delivery
ITV
P2
##hal
##ulations
romantic
difficulty
automatic
Bennett
##entieth
Thames
regulations
##rets
Mechan
##abi
Path
prove
Mt
Eh
eleven
BRT
##ibilities
##uad
Saw
Forum
earn
Nort
Bach
pairs
##ango
thereby
337
Illust
##ensen
Apache
Piet
##iast
Pract
Epinephelus
scen
artificial
##ompass
297
Range
jet
lac
Cabinet
##anka
lose
lift
symbols
Aber
TOKYO
Reed
pref
##gun
musician
improvements
##ianum
##inter
cotton
MF
patient
Pittsburgh
tu
Chancellor
##ioides
bone
tissue
unsuccessful
MY
Julius
phenomenon
Ore
stored
ministers
sulf
##rn
perspective
##coming
printing
##IDS
##ONE
##eting
##icken
mixture
Construction
##enezuel
Adventure
MLB
##luding
Prussia
10001
EMU
Porop
##gi
abuse
MSN
MAN
Sul
701
efficiency
351
golden
Northwest
Campus
502
exceed
Chairman
Examples
recalled
##adesh
##ulsion
1621
Instrum
##terior
##ospel
revolutionary
801
##omical
Palmer
butter
607
verb
Beatles
Grammy
ij
##IAL
Peak
Um
answer
Wo
Obama
2400
727
variables
DF
SON
rocket
twin
Tig
gear
Politics
##ocinc
oblig
##atorial
619
TM
CX
##06
Primary
platforms
KL
Chapel
Darwin
Raz
R2
ports
inspiration
##escens
gig
##char
Mills
electricity
moderate
Clear
705
BLACK
Did
hills
vessel
Pedro
Lav
craft
##etics
921
optical
gh
unt
1660
convinced
valu
1550
##zig
##amon
Publications
471
Holmes
##ctus
##cat
departments
extensively
rescue
C2
611
Spider
358
colspan
collections
Cov
soundtrack
Faith
iPod
Using
Rosa
Cox
##ynom
cutting
IMAX
kit
##manuel
##alg
SUN
Bav
Pim
393
narrative
bases
1628
Industry
##got
Case
obs
literally
NAD
##ISS
LT
##uli
##adows
Koch
JU
masc
##quest
Productions
controls
Madrid
accurate
swe
##itol
##owed
347
##issions
Similarly
Cly
Rum
Kor
##ucker
1646
##ews
pronounced
##hart
cin
##strong
399
##sted
distribut
conclusion
SPEC
ka
visiting
IG
Shen
cargo
liv
framework
Loc
##sor
Hero
starts
Desert
tru
1630
Fine
##irts
##phin
##lu
requiring
Kem
Mathematics
Parish
stretch
PIECE
Drug
Luke
plural
psychology
proportion
virtual
Pix
familiar
restoration
insurance
fitted
luc
targets
Ernst
715
manufacturers
ecc
deter
##iary
621
Sacc
Stalin
Ngu
CK
obst
magic
Strat
Based
UEFA
##DC
encompass
friendly
simultaneously
Mis
##flies
discontinu
Notes
panel
prize
##SA
Huang
##ennium
parameter
Yugoslav
infer
371
approaches
destination
##pling
kW
interaction
glac
Nokia
bore
##ectes
legs
ot
Contem
currency
##forced
width
Wan
##door
##urer
confer
Friend
##sis
329
Fell
##nty
332
Wei
ties
wins
##rows
Athen
PG
phil
eighth
dismissed
##anti
shorter
##essa
poison
decrease
Craw
##alan
tas
Raid
##orks
bis
1624
opponents
##hall
societies
##apa
Ches
exile
accessible
##cester
enact
875
separation
1625
empty
intersection
##ipper
Fed
Barr
demolished
Apogon
Sigma
Tin
##ocinclus
476
meets
Roche
injured
##eti
NL
##race
##MM
EVA
inject
Championships
##aments
##ISE
##holm
Isle
permission
475
##opic
Sed
##uria
concentrated
Claude
##ouns
Font
Frit
Gaul
suspended
spacecraft
##part
supplied
Wong
pall
Riv
judg
Nas
##ophis
Publishers
Pall
##iparis
indeed
raising
MP3
Champ
disk
Mercury
Hod
##07
binding
Abu
studying
competitive
axis
Costa
administered
Sv
GeForce
1662
congreg
drag
Transl
Charter
seeing
pries
Ing
1643
Brazilian
##orted
transit
statements
##BSD
533
merc
Jet
Spin
342
consumer
necessarily
##emia
Daw
L2
Nancy
Braun
Cock
##lined
Vietn
HX
thereafter
serial
Constantin
assets
bombing
Ukrain
465
Trek
##atz
flowers
U21
grave
particle
Tommy
##onso
difficulties
614
C1
golf
gly
Without
1740
##pta
coc
Brooks
##asse
806
graphics
##sterdam
parv
handle
commented
Hamb
bath
451
Kurt
overt
distinguish
Foot
##arta
1603
Theodore
arbit
Shield
1592
416
demands
creative
Varic
restrictions
maintains
IE
##eve
significance
##cano
accum
crops
##abus
molecular
manufacturer
##elet
patri
aware
Vietnamese
queen
##ESCO
Aver
syll
##quet
Horse
withdrew
exha
Kppen
Mam
followers
Ultra
2200
Cuba
sessions
tum
intervention
fulf
##atin
##nut
Hs
589
1636
Image
mad
Glass
Ced
Wit
velocity
Very
respective
tunnel
eleg
secured
##ubbed
1642
File
altitude
##ischen
participants
Bark
fill
plastic
preval
loan
lifetime
abolished
Yak
varying
sharing
statistics
solutions
##epsilon
RCA
compound
campaigns
OT
remote
Amsterdam
1779
developments
Eye
architectural
940
##umph
339
requested
##oustic
varepsilon
432
##hea
##ifier
Iceland
Pentium
stack
##aho
Finance
Hoff
1620
Prec
carriers
Kaw
attempting
##isations
Gibson
Armstrong
##abl
demanded
meters
Poropuntius
002
Gothic
Myth
Grande
Rib
blind
directors
Treas
interpreted
##ovo
Buffalo
inherited
exclusive
1610
Belgian
grey
##lain
Feat
Left
looked
##reeks
blog
Electronic
Chemistry
##atsu
Malay
seed
Complete
##ILE
Dip
easier
Cham
Shi
documented
animation
Episode
MOV
Birth
581
molecules
Gand
VA
Dame
1568
publisher
Blog
Eddie
366
connects
behaviour
##soch
Devil
Alg
informed
muscle
curve
BT
Johannes
920
##arged
376
nerv
##stown
##asha
1773
##uscript
Frontier
Lak
Names
##mod
Bun
Villa
##esi
##elfare
worst
##orge
3C
##asian
discip
970
abroad
442
closing
LM
kin
##bound
Indo
deemed
##olves
spr
vulner
##BY
retain
Varicorhinus
Morm
##ulture
Celtic
boot
collaps
Thal
813
381
Initially
##recht
478
wat
eldest
Republicans
Eri
341
##osum
obvious
forb
server
eu
options
##yu
##blem
Anglic
repeat
spectrum
##iche
Schol
Baldwin
Giovanni
squad
rifle
373
Murphy
sustain
495
##adia
sciences
##urd
economics
situations
##isia
enforcement
394
Sey
cow
leaf
##encl
##ellar
presents
que
Milan
disaster
correl
LV
Ard
photographs
Having
##sung
stability
##rup
##avian
Eugene
Student
##09
Gren
Nixon
scoring
##PP
Saturn
##umberland
Interactive
##Ha
Inform
409
##oline
##ulis
Sche
Drum
VCD
Spot
Bag
##edo
1598
tun
relocated
birthday
DDR
##oys
Popular
ber
Visc
##uchi
Lic
605
polynom
##keep
sang
##reck
MW
##omal
Venice
Methodist
enemies
Tool
cub
robust
schedule
recovery
DK
orchest
enabled
Golf
pmatrix
##zel
##ilian
willing
instructions
naming
protests
396
anthrop
Assist
Cyr
Vision
kick
Hes
binary
##bi
affair
Statistics
horizont
Fighter
Pach
flew
Wesley
lawyer
A380
A4
##ocheilichthys
Rein
organised
goddess
T3
rib
Architecture
Glasgow
##licated
sequences
383
919
Yank
Being
POS
Race
wrest
Fourth
##oderma
basin
expert
1521
clar
argue
conquest
613
##kan
Louise
Deputy
Melan
Julia
Ruby
##vi
##uni
418
##ytic
varieties
##elect
shipping
Ign
##umps
##SH
forth
endors
restaurant
emig
Fol
##ste
atomic
##ahu
##culus
##outheastern
1616
Broadcasting
Norton
pac
oxid
Eventually
disch
##phis
Brew
updated
virtually
walking
helping
Leader
422
499
Cosplay
consequence
##Book
##ranus
##igm
feud
Wals
dissolved
BY
368
drummer
specified
##inas
Devario
dogs
attorney
438
approached
Agrilus
712
MAD
governing
neu
Somers
maintaining
##oned
506
Remix
##code
Apost
objective
hybrid
rocks
mos
medal
427
assert
predominantly
fo
##ieve
##ambers
infection
smooth
811
Laz
Venus
Coc
por
injuries
##otto
politicians
Eup
mont
##obl
Former
everyone
948
Num
##ioc
Aub
Sap
##ourg
Interview
notion
independently
overseas
Differ
bits
bearing
##okes
merchant
firing
Yorkshire
##oire
pushed
##380
gap
migration
Krist
acceler
##iability
Asperg
tested
Wool
Audio
inhabited
H1
Muse
##109
E2
Hugo
thermal
##orpha
similarly
Rah
Sonic
##bot
##amo
##evelop
progressive
Lutheran
##1a
Jama
1580
Rice
filming
556
Guinea
616
tie
Buddhism
414
specialized
Pascal
509
Relations
prevented
##AY
Scout
Singh
##estyle
comprom
Sebast
submitted
Brach
Ellis
Lead
##yright
Lau
2300
tract
603
Berry
4D
Tank
SSE
windows
IRT
liver
##1000
Was
finance
JTBC
Hess
##isers
BI
bordered
Eul
HC
touring
##istle
Aspergillus
explanation
Foster
varied
ibn
Towns
Protocol
emotional
##omat
substit
##rea
Stef
##intosh
##iox
VGN
##itas
Conservation
Forever
Aaron
Find
assisted
Yosh
mythology
client
equations
Gott
##iliation
prosp
##arten
##eric
UB
whilst
363
Woods
BF
Solar
S2
444
Brain
##emble
##uchy
barrel
Bulgar
prest
evacu
promised
readers
##ku
habitat
##nal
1723
Others
##soni
extract
##repr
fairly
4500
##eger
Armed
1768
Heavy
Reagan
##friend
guilty
gam
##actic
secular
S3
Sold
diversity
##pher
##erner
1618
1570
confidence
TN
surn
cooper
682
addressed
transc
operators
interchange
GSM
Higher
374
Winn
Sean
Phant
shr
centered
bridges
thir
preserve
Olig
optim
UNESCO
hidden
variants
swimming
immigration
bronze
1619
grain
temporarily
Ist
rated
##osoma
765
observations
##idad
##oleum
cancelled
TX
comprehensive
eating
Judge
sees
##front
##igi
722
##oya
estimate
marry
Prunus
feeling
Mull
Sard
##iley
Mori
##raska
drinking
Sugar
##ewell
003
imposed
Solomon
713
conson
SpaceX
Thai
##ITY
##rella
Bran
Xe
Against
alien
Haven
extinct
##ATE
delayed
alternate
YG
gets
hung
##icz
repeatedly
##ogloss
548
cord
Bibli
psychological
cathedral
estimates
holiday
casualties
handling
##RO
extends
reactions
XI
##eley
##rio
Premium
encod
Iranian
Nebraska
Gol
##harm
judges
##ompany
essay
PO
##heric
flash
Euph
Gerald
PHP
020
tong
Dj
din
Ultimate
Pon
Track
433
528
Wikipedia
Mode
backed
Beautiful
##hist
imper
##ugh
Plate
PS3
surrender
Mller
Antarctic
##enclature
Spl
479
Milton
Tales
toll
tight
389
authent
rounds
cryst
CBC
Saints
tenure
##isy
summ
504
372
369
##tera
soph
buses
1762
1730
aviation
hoped
1771
Economics
oral
Phenac
##eme
technologies
Osteochilus
register
geq
KT
Triple
tens
##immer
##ificate
magnitude
cycl
##uensis
GU
##untu
closest
Fay
indicating
deputy
severely
homosex
##eig
charity
escaped
involve
culmin
##DM
Ruth
monument
ballots
exhibit
stroke
toured
Clement
Pine
Agreement
ski
453
##800
CI
667
Epic
hbar
pilots
Tag
##icta
namely
030
arist
Period
promoting
eryth
tip
Perl
##azines
Make
sphere
Meyer
##jiang
364
FIRST
bil
apartment
penet
brick
sized
amateur
Banks
Animal
honorary
abstract
##AMA
conflicts
subsidiary
Gul
celebration
chemistry
KS
TT
Vita
##went
##lining
Richardson
Justin
##hof
Anniversary
##NAL
Mater
spend
Edwin
##igl
443
blues
adjust
Handbook
reorgan
Duck
Stories
362
##leys
intense
Lomb
relevant
Sharp
housed
XXX
##iella
citizen
alive
outbreak
sacred
Churchill
photo
Literature
Tik
##olepis
519
Hack
dil
##ding
##aws
considerably
Portable
bot
349
Archbishop
1767
Half
XY
##hne
428
Commerce
soldier
##taining
desired
348
Creative
Mold
##izon
broadcasting
pret
423
dens
BOX
F4
Nass
weekend
geometry
Vegas
382
acquisition
Evangel
Films
##uick
##andra
455
Animax
717
kh
##esa
##ophone
preparation
vital
##owder
reaches
721
si
1720
Ident
grandson
##risoned
breed
pursue
Letters
Pand
landmark
1680
cha
##obranch
##cz
##ERT
cad
##inating
Gustav
##ipinnis
youngest
529
Formation
synonym
Bent
CBA
Bullet
bapt
Fast
comprises
##ococcus
##ettes
Cheng
Therm
defeating
050
Nin
##iston
602
503
742
venue
Britann
Snake
##inery
petition
depict
Burton
##anto
553
##cens
##idis
Diana
##istration
trend
Making
depression
tric
decay
CAN
Dow
458
presidency
arguments
Dynamic
##olin
##umann
##wareness
Cros
552
alphabet
##ounsel
Monday
Henn
receives
Telec
partners
minimal
Vin
overw
corps
Tell
Kai
Nevada
Augustus
Basketball
Cun
Dob
cinema
##ateral
Parks
##assy
licensed
4A
BW
tap
sailed
Citiz
Name
##byter
CO2
premiered
Adrian
Archives
Schne
Cho
belt
##ilio
##ralis
divine
Saudi
aux
##mg
Gardens
sensitive
Dynasty
potentially
winds
nickname
yard
439
triangle
declar
GEN
bars
wish
1769
gauge
specim
sequel
##wing
##rpm
##stadt
transformation
##enzo
##ISC
generate
drums
BSD
displays
##oft
ward
##ologically
divorce
Reyn
beam
competing
EB
bilibili
##anyon
881
umb
Heath
repor
burning
ruf
##ping
manual
##anco
Ching
WH
prost
Lotus
glob
714
##ternoon
639
resource
defended
Various
eliminated
boom
dimin
413
1755
Framework
NK
Rifle
##ilding
travelled
##ephy
1582
clinical
Bil
Tul
##itative
Peru
Contemporary
##otrop
recognize
conquered
Cruz
Porter
Dong
##fs
429
606
Turbo
Pret
##ilion
2H
Trou
##986
generations
friendship
454
resort
XL
aggreg
Strong
decreased
predecessor
nephew
Georges
prototype
pdf
Observatory
resignation
##avier
summers
UNIX
CU
##gie
##bie
Document
edu
##list
##ych
507
Celeb
Nike
winters
farms
Swan
1765
coe
Bf
Globe
Ethiop
Boot
baby
Formula
Fuj
signing
464
Annual
367
DLC
substance
##ARC
MU
designer
Masters
sisters
afford
Hemibrycon
G3
rotation
intern
##enaria
421
V8
Palestine
Lv
##furt
##imity
Climate
Jur
inducted
cylinder
ACE
##atar
##mani
Kot
Schlt
388
VV
551
936
peninsula
011
426
731
Bing
scope
##mate
##atty
Nacional
Fischer
Gobio
##uction
JPL
penalty
cere
##orms
508
626
Drag
surviv
Dawn
configuration
##ontin
dialects
synthesis
Curtis
Dew
bol
package
535
Samsung
Current
bacteria
attending
Wave
2700
Simpson
SJ
Reserv
jack
Eve
requirement
battery
##iya
designation
festivals
##iba
pel
Hopkins
cock
conspir
acknowledged
Bailey
##urel
##ennes
Pitt
645
719
Laws
Lay
655
XIV
camer
stick
Adolf
autumn
elig
Montana
Testament
sending
##ecca
populated
##iom
##len
FT
Fry
Monroe
verse
##eignty
Fig
Herz
confused
Olive
haz
exit
sick
##iology
466
Chronicle
Clif
Chev
1627
1604
Academic
traveling
##uum
##aten
##orig
Than
##mans
bankrupt
##thias
transm
758
compilation
632
arriving
VOC
##ITE
PMID
Rhe
SAS
payment
comed
hex
aboard
Dinosaur
convicted
Blake
photos
Basin
Routledge
Pew
Guild
sentenced
812
##icular
##ludes
##aneous
memor
##chel
##isb
socialist
McN
observation
C4
##ILL
Cs
blow
theoretical
##KB
##onds
dynamic
1649
888
##dia
Screen
Dros
##group
centres
statistical
elite
comments
tourists
proclaimed
Ce
genes
Active
Wiley
Estate
JC
##las
IND
##amation
singular
lept
Physical
bulk
Edgar
1766
Journey
Wed
hockey
##ovsky
Motion
Pure
Truth
smallest
entity
Knights
##onne
Arr
interviews
Legion
fighters
CDMA
##edded
gift
1757
Rainbow
NEC
Bruns
##rep
PRO
Chase
436
622
Amy
Allan
eighteen
Hak
##Net
tut
1573
Marion
716
##acanthus
supplement
productions
##zes
##atta
wedding
##cock
##Cube
##aes
1764
Led
Perfect
##escope
Denver
initiative
XF
bread
filter
Prussian
monthly
sinensis
##olen
quarters
departed
Rox
metab
extending
skill
391
excellent
1609
DI
Fur
eta
engineers
Vermont
pip
##irodon
Duncan
seized
Crist
fame
##abilis
445
##adal
undergraduate
PBS
nan
warri
Alleg
realized
Bradley
voiced
devast
1689
##castle
answ
Palestinian
Twin
sew
##ithms
underlying
fallen
##anese
##gang
Colin
numbered
565
##lanis
##rata
illustrated
encountered
Canyon
Sas
expanding
##ulin
604
Roc
Benedict
sacrif
Kau
push
Solid
valuable
1748
Chir
##enius
##apor
explains
Animation
Attorney
Lynn
##rene
Liner
##VE
##pense
Bohem
dubbed
engage
##arians
Canton
precipitation
Total
##Go
debuted
messages
5A
1745
Vladimir
Corner
##munition
##istent
monarchy
##icill
##aines
515
gathered
highlight
Stop
occurring
wore
##gs
##chron
##quin
contrad
personally
lesser
Merced
Lancaster
Lodge
confusion
believes
Danny
los
forcing
Beauty
audiences
Batman
transformed
Vil
##romagn
##colm
Benth
392
642
SY
##Co
##tel
##onium
Todd
Hass
integration
Conrad
disturb
philosopher
Miguel
considering
718
Aj
##amoto
scores
Rider
bears
Partners
Hamburg
fusion
impress
Vert
452
Hang
symb
Ib
unn
Combat
Glad
Paradise
quot
Laura
Schmidt
##asters
rid
##cape
##rock
815
##nell
composers
Ville
1759
affiliated
##urea
peer
FP
manage
1623
##raz
commentary
Ci
conven
altered
Reading
bypass
##quiry
Feel
mes
Ble
##alum
##ophys
1701
acres
##END
contribute
##arms
Kate
Lif
Mine
talent
A350
layers
beauty
cyan
##zyg
predict
Wr
unw
Tourism
Yuan
naturally
suggesting
398
441
FOX
invaded
Institution
circulation
Cathol
##alon
examination
Tow
Euro
drain
691
archaeological
523
sung
Canon
kinds
tea
##IGH
Lisp
quoted
terrain
##run
doubt
Pep
##atever
victim
Troy
fifteen
jury
##ivo
557
identification
closure
Philippine
laboratory
Municipality
membrane
Grow
rainfall
TI
aest
##mates
Sag
1688
gymn
dialogue
lieutenant
##etheless
Calvin
##OCA
##server
JST
##ISA
breath
Malcolm
internet
manuscript
Crisis
saved
##amia
XII
##105
stronger
##atur
##ewise
hull
Gob
1626
Schwar
Germanic
Tap
Columbus
picked
fantasy
1629
Scand
1571
comfort
survival
##rab
##hematic
Mao
##esto
mentions
Neu
samples
C3
circular
##MO
Venezuel
Scots
627
Eg
wavel
paras
Glenn
punishment
Carroll
Chaetostoma
regulation
1583
##unny
##ifrons
seeds
Munich
sle
envir
##icauda
Learning
##ono
Sandy
latest
Tall
quiet
lasting
prediction
cooperation
##asciatus
Karen
Lebanon
##leton
warning
Abdul
Constantinople
901
585
philosophical
518
Solo
##ombe
Mathematical
##hester
Manager
688
Mits
wiki
##SP
Cert
Cyber
1368
Circuit
##ueensland
575
Bott
Gan
gro
navy
equally
##O3
##ilda
rows
Homer
##artz
Windsor
Pete
raw
Bulg
Rodrig
ELE
##oine
484
488
Commissioner
Weekly
Emma
LO
minim
Redmi
Mongol
signature
Cai
##iman
Lucy
Rachel
424
##PL
regardless
tale
##amic
Chil
belonged
Own
pig
##hemer
##itsch
Carlo
434
Made
Task
##acked
sovereign
chron
446
Presbyter
Fear
##ogg
Musical
institutional
##eves
##phan
Weap
##iffe
Geoffrey
Juda
NAV
challenged
Yi
##ophilus
Meliola
Cohen
Gom
xi
##itely
Gazette
Missing
Pty
Month
Ranch
attitude
seriously
accommodate
##DI
1670
metres
Adventures
telec
overwhel
397
##nis
contracts
electrons
drivers
finals
elevated
Sylv
534
Leslie
attacking
peaked
Ptol
##phys
magazines
vowel
K2
Capitol
Belle
##ilapia
alumin
scandal
comprising
H5
Resources
Jupiter
Brunswick
Klein
citing
divor
abbreviated
nas
377
##uku
Amendment
organisms
Miy
JUMP
608
dors
lux
##gence
Brid
placing
472
arose
##acus
1735
532
Bess
Pare
##ospor
##hao
Jeffrey
cartoon
navig
Fiction
Rocky
unions
Airways
##icism
##omac
##rax
mechanics
Moroc
Zhu
ram
Inside
restore
##irs
legacy
deposits
favorite
524
Essex
deeply
##thouse
gardens
905
Ukrainian
Actor
Ferg
Peg
caud
456
Mang
##106
##sten
finishing
HA
805
UFO
##awn
##power
chest
Bras
Phng
explicitly
Folk
##ipse
##enche
536
unemployment
1590
1637
##loo
Mim
rulers
boost
bonds
Alexandria
videos
##ichte
##eco
##inck
##stead
##eur
inflation
##olithic
##phant
D2
subset
Sherman
fabric
##DF
##ilum
##van
enorm
detect
ACT
##OWN
##nan
643
synthes
happy
##YA
1727
sure
shifted
procedures
Shell
ash
grammar
lights
Birds
##elius
accompany
755
##kinson
facebook
Cirrh
inland
GameSp
resumed
##rafts
##KA
collective
dollar
Minecraft
Anglican
dy
Actress
crosses
columns
cens
Macintosh
##uarter
earthquake
##family
disorders
1565
renown
Hermann
SAT
##icht
DH
803
nominal
##iobarbus
speaker
##umm
##ELL
laser
MBA
stops
exchang
sword
##rific
Hammer
##math
franc
distant
uk
##ento
dism
defines
anticip
improvement
Genesis
969
Letter
Tetr
UV
##acanth
##avi
1634
bac
tasks
F2
Herald
ninth
disputed
imprisoned
##aiser
Dale
##horn
##shine
##brook
004
##ahan
Laf
Wire
Photo
stabil
Miles
1553
fifty
##enb
Ans
494
Blair
martial
breast
certified
##rolepis
fee
credits
Dil
tennis
relatives
Nit
Simul
diagram
Gardner
Rise
Tas
Chuck
coffee
permanently
hosp
strings
M60
orange
Pos
plates
indirect
808
Harm
##USE
Springfield
Newport
properly
##conn
890
##uscripts
Keep
NG
1615
Pseudanthias
Philippe
Cao
##arat
##ioch
termed
##ANT
Armenian
cuis
reporting
MGM
##vo
PW
379
1560
675
Lit
Pros
civilians
ticket
NPC
apprec
Trin
protocol
##AMP
assembled
Kant
attendance
fraud
##aping
##ernel
628
Elements
gallery
IPA
##bled
684
constituency
Ley
Cinc
IUP
##kal
##ampton
refugees
##ACH
Warsaw
prepare
surfaces
##iridae
forty
attraction
Hurricane
nurs
##001
1607
Barcel
dimensions
##pis
Chlor
1631
Fraser
##enders
Cannon
absorbed
Artist
Attack
assassination
1250
clan
Need
##ichthus
missiles
Strob
##ything
##affe
1567
qualified
libraries
Eun
Germ
Wellington
Bever
##rypt
attribut
duration
##icron
1736
fortress
sitting
1753
Ops
##ellers
nearest
Declar
invention
668
teeth
blacks
Dial
##prises
1613
##rano
##unciation
493
##elligent
putting
Ahmad
fisher
hur
rent
97875
asking
bug
##care
##enues
abilities
murdered
internationally
Maid
##look
##SC
751
neighbouring
Pomp
##mercially
Fav
Orn
quantity
adoption
912
E1
insisted
Ug
##inella
##igger
relating
##pro
legally
##lee
492
McCl
prompted
ri
seal
antiqu
Cover
sovereignty
1016
aristocr
Faculty
theology
11000
##rians
approxim
OST
Dian
Herman
Catholics
clergy
##oyle
Prison
762
Cten
notation
##oly
scrap
Critics
Moses
timber
mammals
578
522
Weather
lip
pill
##EAM
twentieth
Ply
cc
468
associate
cuts
Mate
criticised
##ako
ride
##iidae
##atories
Winc
dub
telling
reluct
macOS
Linda
waiting
Dover
Jennifer
Comedy
576
Morrison
##hend
##ogo
##aryn
##restrial
##rah
542
visits
enters
Sail
##hand
Petr
Nets
outdoor
Durham
ben
fed
danger
##idan
##tor
##olm
Oriental
##3C
Moreover
2800
metap
##shop
926
925
KM
##annon
Starting
Schltr
Va
988
NCC
proximity
Rule
Balk
634
derives
manufacture
Griffith
##imp
914
Hood
Tric
hu
##amy
##ospha
##isson
Dot
NIC
Commercial
457
calculated
##arck
Davies
measurement
fossil
Psi
##vor
insects
Humph
intermediate
##ums
VIP
reward
Schl
Gross
##iates
creates
Somerset
##uga
speeds
4C
awareness
##acular
##inda
Berber
Dud
chapel
flee
Leopold
1756
Viola
yunn
anten
##kl
Job
Planets
remembered
##ZA
revolt
complexity
Hardy
talks
SEC
##lide
united
caps
Vie
commerce
epic
Paraliparis
Dw
gaining
las
mutual
gravity
##abul
##dan
pray
doors
498
pollution
unity
annexed
AX
##arium
Corp
Berk
##ifolium
448
spelling
sheet
Rhine
judicial
##inned
sixty
venture
aster
Fut
##alensis
##fecture
soci
571
helps
accuracy
Worth
##zt
1635
burial
Mara
624
##urai
consent
mechanisms
hide
629
1651
fatal
provisions
ratings
odd
L1
##igny
dealing
belonging
636
nineteenth
463
437
Greeks
Powers
##aden
artif
##odore
immun
Chess
Democracy
1450
Pocket
790
Instrumental
##onnaissance
Progressive
Arabia
atoms
decis
YouTuber
Baltic
Midd
zones
##onments
##irical
##atti
Falk
1612
##iculata
decide
Rosen
C6
studios
##omyces
Andrews
##inos
##chard
##ovan
consensus
##ONG
##imm
##iaba
2C
Lamp
Chad
1001
##ija
Gonz
Rangers
theatrical
Tact
Cable
Electron
proposals
URL
switched
autobiography
Leuc
summit
489
paying
Industries
tril
carries
Kok
##idian
GameCube
Pam
Cities
RP
medic
expelled
##ounce
Exped
Crawford
WP
##zan
577
Crom
Kitty
##bles
1526
006
Strateg
cort
Pokmon
Concord
thorough
outc
##oxinus
##aphis
ferry
comics
disband
Working
E6
revived
##rion
538
unclear
anat
##As
Fernando
evident
riding
tob
##ruc
aggressive
Ubuntu
990
programmes
encourage
##walk
##oslov
Victory
discontinued
Gould
496
Patric
##Pa
counted
Maxwell
1647
actively
Gates
##last
Ottawa
DEC
Fris
Yo
Cran
##maker
##KO
##isse
##ocene
grid
della
3200
Bulgarian
##umen
##VER
Sleep
##uint
Americas
Canter
Fields
TNT
##ouncill
presentation
563
hook
Sib
proc
BN
756
Emily
##log
Newcastle
occasional
wal
531
582
painter
chrys
PN
consequences
##lant
crass
##ilibrium
##enchelys
dimension
predicted
1520
quantities
olig
Tyler
RM
tables
Deutsche
##rary
errors
Have
635
Manufact
1492
Orbital
scr
483
portrait
##UNK
horizontal
##arias
1667
Caroline
Fellow
cardinal
##flu
Mau
Champions
##avity
833
physician
POW
527
commercially
Acer
Underground
digit
discipline
esp
Coch
authorized
Panama
##var
##elo
topics
##A3
##elis
perpet
backing
tag
vig
Alger
underwent
Trent
recreational
544
Rex
Rugby
customs
##ocephalus
##Works
##rosion
Account
suburban
faces
##zhou
Cephal
##ders
Missile
Henderson
704
compositions
Racing
##itects
##alli
Presidential
Ophichthus
thread
beer
conductor
Pag
##lements
Chun
colleagues
Hz
##izers
torpedo
Ey
steep
Arctic
metals
Fifth
1638
Anch
Dion
autonomous
Angels
Extra
stones
Zhou
##ogene
917
##cos
Vehic
allied
MOS
1761
##alling
##Pro
##icious
##oyd
Poet
Mg
Zion
Allies
rings
compress
Denis
millions
##text
monastery
##ieb
freed
##lich
1707
##BR
##opoly
cel
advocated
Personal
Sten
feeding
rever
##mented
##regular
Boul
opposing
1559
##azi
477
WN
546
##OKA
navigation
Hip
447
##etically
Chung
ammunition
surprise
vacuum
Reynolds
Lange
##athon
Syzyg
1664
rebels
ATV
Bast
weaken
volunt
Scandin
##eit
bones
Europeans
Judaism
Iris
##oan
##Cl2
##endered
482
Guang
Lambert
Fus
lar
##idance
1713
Hut
Roeb
allegedly
Johns
Easter
Moh
Declaration
Syzygium
crop
item
poorly
raids
sanct
cave
##imony
Cay
Johnston
##obia
suspected
YOU
Kak
##rica
568
pulled
sculpture
outcome
##iks
traded
1574
Cherry
chess
JYP
Highland
##pot
##BB
fract
Conv
BASIC
discrimination
pharm
Mom
Mant
702
Timothy
ethn
Eyes
BMT
truck
Newman
antib
Depression
Dock
challenges
Petersburg
cricket
Luxemb
cyt
##estes
compiled
Carpent
##berger
Junction
##ampa
##ASH
arrive
metall
conjunction
##uven
IPv6
bishops
tang
##iscal
##agonist
politically
##H5
##angular
586
##ostom
##neri
##ivileg
scre
Continu
playoffs
B9
##ibus
posts
Gael
Vick
005
517
Lars
acceptance
Barcelona
Sep
##iani
guests
Terror
Santi
Bryan
040
Stephan
commitment
Think
Heat
Congressional
20000
differential
MOVIE
Dactyl
E5
##elles
prayer
A5
interact
tactics
Penguin
brew
##usta
Legislative
lying
Hern
Koh
461
1577
481
poets
Potter
Kang
offs
sou
Shop
467
##ungen
parking
je
##onde
IDOL
bullet
##ussion
545
Nicol
capabilities
473
748
viewers
UTF
Sens
proven
938
Fergus
ul
1547
regiment
Flower
##tar
##oensis
chip
Sett
Sometimes
##ovirus
Weber
##ocheilos
REM
Classification
reserves
Sang
Technologies
span
genera
intercept
##RC
sab
##angered
clot
Workers
stake
Constantine
certainly
##hurst
##otis
Hampson
volunteers
bio
Close
celebrate
prohibited
Lect
##mania
integer
fu
G1
formos
VO
dock
AFL
penn
1601
1556
Cic
##ridor
915
##via
1525
759
Freeman
consciousness
##gent
651
tension
##UG
induced
DP
Tah
interactions
prosecut
Aphy
666
Notable
segments
criteria
1530
solely
onwards
##tsch
cancel
terminus
renewed
##eased
##ometer
##utz
gates
reson
triple
##olab
forall
1517
Jupiaba
AKB
469
##ICO
osc
Gur
##uay
Marg
Pars
##chet
Greene
Fami
Gobi
##ylum
factories
Imag
Iraqi
Brave
##igar
computing
Forbes
absent
656
##ARE
D3
complicated
Bend
rod
##erie
##abad
491
1589
divorced
683
Salem
1585
Bedford
Medieval
bombs
##kii
mans
geographical
Albany
Rudolf
vegetation
cran
##isdom
Omicron
Salvador
enable
GIR
Standing
lawsuit
Sicily
renowned
Kob
acids
suspension
imported
scholarship
##gency
658
1639
##ilde
ey
priests
environments
HIGH
##amensis
##kien
1714
##iscopal
Plains
##ullah
Geneva
suburbs
Felix
infinite
##opoma
Hockey
##enstein
1724
567
planes
WORLD
487
PCR
##elly
drove
lens
##aque
Given
##child
flank
Zepp
##millan
finger
##yss
Suff
Agriculture
Marl
travels
##ulent
AIDS
passion
AIR
Tourn
overth
##schild
##iott
1685
Eston
Anime
Alm
##uzzle
678
918
##hou
Genus
NEWS
Strait
##wind
dozen
Leices
footage
holes
perception
##illet
Alberta
Historically
wait
##bin
implies
estates
developers
Bord
##RT
##501
premiere
1721
adher
##unda
accomplished
bip
ATR
transported
##ucci
Macmillan
Plymouth
863
SAM
##onaut
1586
ingred
1633
Hym
865
Heroes
Legacy
Progress
Tir
Cafe
##istence
599
U2
findings
##pect
##itated
##hrer
927
lighting
2m
tom
Brock
1659
Fru
##World
Upd
##erness
##ossa
tours
V6
##ocl
modest
performers
correspondence
separately
horror
copyright
##uce
Hutch
##OPS
541
consistently
KiHa
Joshua
magnet
##CP
1540
thanks
5500
disappeared
##adic
clay
##upe
##ORY
##AGE
1572
Jeremy
VP
wheels
withdrawal
condemned
Canterbury
##osystem
continent
JO
sau
Sd
##ilanthes
1754
TEM
welfare
##ormal
collapsed
southeastern
##onis
Barnes
Czechoslov
##umni
Plain
supporter
513
cylind
Jas
928
Volks
##WC
##egan
978986
##mother
537
convey
foods
Egg
##wright
Shore
Multi
##ivision
##129
Compet
compatible
VH
sor
striking
Communication
##itory
Nathan
pale
frequencies
coined
Nott
Frag
arrangements
##orinchus
Panzer
Coelorinchus
bod
interesting
##agles
engagement
wavelength
Umb
Vand
##heimer
##egel
newer
MID
Doug
Liberation
Tyr
Schem
##atu
Pang
organisations
##etto
##ynos
##amba
NI
nerve
##arf
Things
##In
##ialis
mirror
Honda
Try
685
accus
##original
Paramount
sustained
1752
Apart
##atem
humanity
Hast
Nut
Bj
Pirates
colours
1654
Mercedes
Ferry
pursued
##urities
1511
609
reserved
Expedition
##stock
1733
641
Surface
##iflor
translations
Principal
Currently
broadcasts
##ratic
customer
009
Derby
TAK
##atis
##iw
##addy
Cuban
Host
Pere
tries
vulnerable
Siber
cant
##stand
Kick
Natal
steal
##sson
ZIP
##perm
Bruno
648
754
##hibition
Plectran
cameras
Hew
trim
marginal
1652
Strike
Kub
Ges
080
##uil
##TN
##anz
focuses
lb
sus
cluster
Ae
pine
##aukee
adequ
Laurent
##epid
das
##opia
missed
prisoner
surname
Maya
Crazy
Pain
beneath
automatically
citizenship
reception
sizes
unrel
earning
nobility
Hier
Trap
dish
wake
561
linguistic
AAC
Iber
1519
directions
##atoes
firms
Hous
BOSS
Liang
2N
Vatic
pod
Ana
biology
Frost
Cerat
megal
653
layout
1725
##elsen
623
posted
Aristot
Downtown
diox
equiv
freight
1751
religions
pioneer
Buk
dust
orientation
Convers
removing
abolition
receiver
562
##BF
761
swing
##ocus
ALL
Nashville
redes
Saber
Presbyterian
hospitals
##olla
ANS
manuscripts
Gale
449
Hawk
##ubercul
reliable
transmitted
harbour
Yuk
##ipel
explosion
818
##ados
Prom
doesn
northeastern
##avirus
##rocephalus
##ICA
confirm
Marshal
Rade
Reid
Wildlife
crucial
pian
##cole
facto
Oakland
tribal
##andro
Tes
558
NTS
topic
Robertson
013
pent
##osaic
ke
introduce
stere
vin
##HK
Gregor
reconc
eventual
Bachelor
merchants
Religion
Maritime
IUPAC
mills
474
Croatia
UL
highways
MAR
692
nose
tent
Frankfurt
Grade
ore
##alla
##elyn
pound
##jin
##ilius
anx
Blade
threats
ic
chromos
JF
pier
1632
516
##legiate
emerging
Hin
Rip
enormous
##cip
conform
497
Phantom
Rabb
Running
##reprene
Aero
##Die
526
continuously
Mali
##roft
Directory
intensity
##eyer
masses
precise
Buddha
Ambly
cognitive
902
725
Check
feelings
##emi
Ellen
##canic
parameters
elaborate
##uania
##fast
Suk
1729
845
Match
Nex
Hanover
FW
VPC
gra
presum
Oracle
cemetery
##wen
##aras
Murder
Bee
tfrac
Paras
646
scientist
Tao
554
##OSH
fiber
advised
fi
##uine
Marco
Bangl
tenth
taste
##atan
acoustic
CCD
measurements
Pool
Xu
##erek
seasonal
myTV
focusing
##rite
Rhynch
##ifles
Coron
Valve
1655
strikes
1535
achievement
Kash
##vas
##ordinary
Congo
Burke
widow
Hert
##ussels
Nikol
##hardt
Dir
NF
Bren
Sarg
Shot
Glou
physically
##Life
##geb
Webster
Lithuania
706
Drake
##iaz
entities
irregular
Aq
##iodes
improving
unexp
2S
Ud
1524
##abar
##rowser
Duchy
1728
reveals
572
##ulates
##ochem
flooding
dys
circles
Hellen
Nim
Thing
cuisine
819
competitions
conducting
ballot
rubber
##oceras
failing
violin
Ports
PAL
Poec
NEW
eligible
Cul
Aus
Feder
##fol
Witt
Burns
Besides
##anan
##eches
##urrection
thirds
exhaust
ATC
Mamm
rabb
##DL
549
AGM
559
816
collaborated
militia
Bulgaria
experts
Mist
##EI
##inium
epit
fault
Teen
relat
##ylan
privately
PET
##atham
sheep
arguing
B3
NJ
821
recruited
Gog
##osity
1111
Georgian
##onensis
Idaho
814
pauc
Benz
targeted
H3
##erd
query
ancestors
671
prevalent
Sega
Yet
degr
Mystery
Ride
soccer
##ebe
receptor
prefix
##nos
dense
pseudo
##ommunications
##oves
trace
Macau
Bahn
514
674
Serbia
##Pie
##held
459
fees
fate
valued
##EVEL
Dash
Use
##clipse
Hour
horm
##adier
plug
##piece
Strobilanthes
exceptions
promise
Einstein
##ecker
M18
Rai
Tac
##gal
Lithuan
OG
##isure
Kad
##ffield
##phus
salv
Aul
tobacco
releasing
588
Fellows
##ORE
1595
photography
acquire
##hey
##agonal
agreements
pedest
lane
##NN
beings
##ollis
outstanding
##ounters
Orland
1569
##racts
conceived
GH
Viz
reader
E23
1150
##108
reconstruction
Sta
ju
nucleus
Iz
1715
decorated
##idays
Nothing
##egie
Read
completing
tends
shells
tornado
Trop
Marqu
utility
Beast
equilibrium
neighborhoods
Fresh
KV
Colony
posthum
COL
facts
enrollment
trigg
1588
##ahr
539
parade
capability
679
looks
##00000000
##chu
Elder
Lennon
numer
Nicolas
##fried
855
923
##ACT
PewDie
Ilex
Pax
streams
Haus
None
##fi
Cornwall
##ivent
1690
G4
##xi
Ptych
Mys
Knox
##likely
wheat
##ometry
Microphys
1718
lacked
Ibn
##SD
1011
945
##omyia
accordance
Nou
Thous
Slavic
node
##adio
insign
##grim
enhanced
Warwick
##flow
Nomenclature
gn
##SI
assessment
Pucc
##rooms
1010
2B
##airy
sap
##orrect
1672
##enzie
sodium
1523
angust
2026
Shim
worker
enrolled
Kamp
gluc
venues
derivative
declaration
Dul
revers
neglect
boards
##ropolis
543
1658
announcement
Audi
##rition
rely
Assy
shallow
Pyr
##alid
7500
squadron
inherit
adventure
NEXT
Piano
##the
##acking
PewDiePie
##urated
temples
publish
##sochilus
##emn
##pring
Martha
processor
logical
Microphysogobio
##ellation
sax
Dual
Laser
598
##unal
9787
961
1684
Xanth
resolved
Lepidoptera
Sinc
##cin
weigh
epid
hostile
brigade
587
Sik
##rurus
##omys
auto
competed
hotels
Lynch
Giant
az
##cur
933
Stark
Stockholm
AZ
Betty
Wrest
dancing
##esthes
652
tradem
Kane
ku
songwriter
PGA
1562
Legal
fung
mathematic
##URE
##BOX
Engineers
persuaded
genres
drives
detection
strictly
Cincinn
##krit
##H2
Joel
698
Artists
929
preservation
installation
Countdown
##ripp
##ictus
Exynos
comprised
##atl
981
deterior
DirectX
Paint
permit
##inna
886
honey
##aren
Parade
947
##roctus
##borg
geographic
916
Dic
practiced
Croatian
Coalition
ti
##aji
Viscount
TLS
462
Andrea
nationalist
##ORD
1597
Motors
afternoon
Kaiser
uran
633
Serbian
709
metric
968
listen
##115
corporation
##inted
##onomic
1260
Kingston
Synd
##bourg
bombers
lectures
##mn
Kara
PF
Colle
Cauc
Brah
Chapman
constantly
592
duo
contributing
Roland
Santiago
tou
Conway
##parts
##ktop
##ylus
Too
sid
1536
SLAM
thro
644
673
ignored
FB
##ianc
##otion
smart
WIN
neq
768
settings
##lv
##redited
596
neighb
Boliv
yunnanensis
##encia
supern
comparable
allegations
barrier
Scholars
##ilbe
inches
Marcel
interference
##leri
AND
amendment
MacD
Doct
##chan
1453
coordinates
Bin
aside
##andi
colored
Antoine
Greenwood
Gospel
Ish
avo
##species
grants
ric
##astes
##190
advocate
##agic
availability
1666
##warf
Janet
##ramid
R1
pav
unve
Institut
GAT
1717
1742
Choice
shots
1555
priority
Cornell
Filip
Nig
compression
Gnath
##idelines
##Map
commune
Twenty
gathering
Pione
##holders
##ancement
AO
gest
wrap
spher
Dai
WA
##ashes
planets
##regation
Deutsch
Athletic
mom
1741
Scop
593
unlikely
##ilee
##wang
Levi
Jessica
Habsburg
surpass
##backs
Yugoslavia
dying
##onema
Indies
Ms
ost
783
1653
Lik
Lambda
marsh
##zon
Sheffield
disputes
distances
Syrian
835
fier
Abbott
Cyprinus
os
904
Allium
1665
EOS
Harri
##iors
##ypt
##bol
##201
##mons
##awi
574
638
Wide
praise
##aum
Giants
Kri
harsh
##rone
Fors
pix
##aft
stamp
Easy
Britt
silent
PhD
Divine
Toyota
Wings
Radeon
Success
1350
Archer
Hyde
Innov
nicknamed
Sidney
GAME
M5
##bank
HF
sept
##anas
Evil
1681
rolling
Zap
1605
Chero
nud
##esses
Course
Jiang
Prou
Platform
lith
##romagnetic
Nab
##arded
exploration
preventing
060
##itia
consideration
impressed
##official
curv
##wyn
spite
interval
595
##iliary
scattered
Cred
1611
Veter
lig
instances
Vernon
Parliamentary
NAVER
##yrus
aggress
547
##arthy
##electric
VOL
##teryg
Sussex
##rill
Malta
rug
nationwide
Richards
##osphere
##iak
##issima
Ens
Solanum
anthem
Lucky
Lyon
Werner
Observation
ine
marking
RAD
649
1435
Dart
trails
curric
Axis
Leeds
786
salary
Wheeler
polynomial
sophistic
considers
suffer
massacre
1593
thirteen
##yers
Leh
Waterloo
##iating
##ugu
Continent
Shoot
817
##iton
##iking
Empress
689
CZ
1529
1541
Viking
##itr
##abs
1641
dB
##Al
##dorf
##rators
597
museums
Challenge
vi
##bel
##ittees
trouble
##atics
Marian
Atari
categor
Ek
Feld
Christie
mask
##bian
undergo
Suite
##manni
Tibetan
##witz
##HP
Emmy
scar
##ancock
momentum
Amph
fever
assume
Mickey
Cherokee
JD
##KI
privileg
acute
LSD
Gad
pupp
Dreams
fastest
dos
ultimate
modes
052
631
798
569
nominations
Origin
1710
##ogramma
Preston
Winston
Carnegie
microsc
reconstruct
aug
584
825
Albums
##isha
Elliott
Ris
jail
Vog
##anic
##apy
##lesiast
Players
infant
Secondary
Asteroid
wasn
Arrow
phenomena
Hul
662
Ephemer
informal
##ersh
fires
##lis
maritime
aftermath
autonomy
Hayes
ambassador
##olutions
Circum
ZGM
##bery
explored
crystal
##ophers
##ondo
##ported
Milw
##iconduct
Stream
996
overlook
Leip
Till
##bul
smoke
##113
735
northwestern
##lein
1606
singers
employee
Luft
Netscape
Arsen
728
rendered
Harbour
##ytes
Lives
##KS
victories
Cotton
Rouge
Schult
Floyd
USSR
avoided
Julie
McDonald
##ocarpus
MON
contested
Commodore
tendency
defending
##INY
Wen
Criminal
Indonesian
oscill
##asaki
##igne
valve
teleg
Skyl
diesel
Ov
Dorothy
Educ
U19
noting
console
Hyps
##abulary
Hok
Wid
defining
Mitt
Rak
Wick
##oning
atom
##anim
##eproctus
Superman
##isphere
878
##rach
1722
1732
##ologie
Gav
##inata
default
##iguous
A6
Zn
Chronic
951
guided
Cincinnati
preceding
Chish
647
Waters
##atial
Mell
bind
##base
Buckingham
##eh
##pur
staged
creator
Connor
Orlando
Mai
973
KAD
##cut
##anor
##leb
Eden
Summit
MAG
reflecting
1744
incomp
Sain
##opogon
LEVEL
ny
voyage
##hett
##atche
lad
Manual
ZGMF
Hitch
##Type
3600
##ospace
##ygon
wants
Writing
bag
Pab
##estock
trick
##thy
##ournals
Ahmed
Edu
##MG
##osticta
##rescent
Border
##elong
##icals
garrison
ceremonies
848
##chester
chains
detected
##ficial
AFI
Chamberlain
PU
commenced
876
demonstrate
913
807
favored
##omonas
##beck
Sister
councils
travelling
evaluation
impression
Drew
##301
doctors
Guadal
955
equality
##agedy
TGV
Raja
mang
Hundred
661
stationed
surrendered
##ching
anarch
Logic
Habenaria
nitrogen
Male
ker
Glac
##lects
compensation
2K
Boris
deployment
delegates
Francesco
1575
##vern
Emergency
Warrior
Pf
##ften
##OST
Advis
Jamaica
Lact
##rington
populous
descended
##ibal
885
Erik
Trophy
6500
Swift
algorithms
propaganda
mature
remix
Exc
radius
pour
proportional
Luxembourg
faction
participating
Phyt
banking
Fir
edges
3M
Libert
Illustrated
##elope
fortune
Pharm
Drosophila
Burma
1370
##inee
southwestern
realm
towers
Winchester
associations
##letcher
Dise
mud
##inge
1737
inclusion
myster
KDE
neo
OBE
rugby
##igious
726
Sanskrit
intr
meter
935
Urb
Excell
Rhodes
Tribune
##bed
##cepts
formats
energ
008
775
##ometric
volunteer
Cricket
counsel
1024
A340
Lanka
Von
1739
Romance
Dio
lute
symph
Colonial
Gel
Speaker
##orff
SIC
1746
##ende
remn
investors
Wolfgang
cass
incumb
Mast
Mons
##abling
Hank
##idy
isot
Synt
874
ghost
deals
Naples
Memphis
Era
Lines
rental
heating
##evo
##ountain
Editor
Moor
kidn
PB
Ves
enacted
Fritz
Wizard
##grave
Grap
##inqu
##ensing
796
contempor
frust
##antes
##operca
1490
Claire
Bundes
unexpected
10GB
##apo
gray
Manor
Knodus
778
Kep
##XT
##oney
tongue
Nest
##allus
interf
GameSpot
##cence
##isely
Hull
##120
##assic
Treasury
overwhelming
##fields
Tut
TOM
659
##oshop
Och
Schwe
Howe
##onicus
ally
employers
##ocolate
heaven
Cave
Morton
wik
proceeded
Adela
##etown
incorrect
Ji
plasma
EXILE
Coryd
Want
nights
##ophorus
skull
organs
##arity
Legislature
arena
694
replied
treas
NU
##osal
##ardia
Dylan
##eted
1697
advertis
##thalmus
Cecil
conspiracy
perf
subspecies
Maple
##UNG
Carbon
Miz
1673
1726
turnout
congressional
PSY
Fighting
Roma
bonus
winners
##3D
1679
1657
Fen
##arre
MP5
paradox
Kry
1749
Norse
armor
CRH380
applies
Madonna
dip
loud
794
TL
asks
864
##market
CAT
##pit
##GHz
##eyn
Rather
cum
vag
plum
Nur
expense
carb
believing
Hollow
bra
729
activist
OpenSt
AMX
ordin
##CI
irr
Milwaukee
##ostigma
uncon
Shuttle
calcium
Vatican
guidance
##IAA
toxic
Fest
lighter
##lights
lifestyle
Belf
LLC
##omed
Phase
introducing
boss
##MW
ministry
posit
evolutionary
909
STUD
vacc
flown
##mal
##ibarbus
Ars
Glory
maternal
Jenkins
##owitz
##rique
Carpenter
Rd
dur
##hin
Cumberland
Eury
Webb
breaks
artifacts
Lig
Jesse
tubes
##idas
tended
##pace
##ortium
##veill
Yas
poster
discussions
1516
##ostic
967
wished
Nguyn
hydrox
psychiat
questioned
Colombia
symbolic
peas
Elis
definitions
##ocaust
upgraded
Counter
labels
frontier
ideology
##otypes
695
Artem
Words
Agent
Nees
cruise
Normal
##icolor
1538
Grave
teachings
##thel
pole
Hag
Ide
sectors
##arag
controlling
wound
Photoshop
##IFE
Rochester
Lus
##ologue
1747
carn
Fow
##iker
1669
aims
Previous
1B
generic
managing
insu
orbital
Kend
##osi
1731
Chaud
934
Nol
##omers
908
diagnosis
locomotives
676
Pis
lap
discl
linking
ling
##urred
##ahi
Turt
JK
Lily
##eus
##HER
Carabus
Tamil
##allow
##shore
Thir
Tonight
compromise
971
Duff
deer
editors
microp
pant
measuring
truly
Tau
maj
##istically
kar
mt
##fred
672
reduces
Gig
1738
Odontost
Rapid
H5N1
Chisholm
##ulator
Spart
primitive
Universit
bills
legitimate
738
drawings
feared
Cyan
flowing
##yon
##idon
para
MTA
Tunnel
##eav
##enae
##overed
Manila
Investment
veteran
partition
bitter
##uinn
##lair
##zia
ISP
##adv
reop
Abs
686
Twins
Rever
##omis
McCarthy
marri
##Bike
healthy
Psychology
dioxide
wedge
##ml
Ulster
Silva
bounded
##iphon
Monument
nationally
##ascular
mant
1522
937
Palae
purely
C5
reel
thesis
1532
civilization
withdrawn
Initi
708
Bulletin
1614
##aceut
suddenly
Kenya
Simulium
##raul
Whitney
NTT
Brien
1527
##anca
##archus
Abram
##uti
perc
Moss
YF
##gae
Careproctus
##umbers
keys
##addle
Leaf
Representative
powder
##acia
Lobocheilos
Hos
beaches
electronics
Luz
##erville
##anthrop
badly
Poin
relax
Remember
termin
Venezuela
4100
ceremonial
sits
##otrich
openly
investigate
Deg
Hancock
shoulder
Yard
Cald
championships
floating
Wilm
Shock
Rothschild
Bangladesh
015
Rocket
MPs
Mirror
997
579
##writing
harvest
substantially
Ai
IO
##102
##uantum
survivors
Ephemeris
##veillance
##PD
Individual
Helm
exercises
Hawaiian
Chrom
##ocha
Hybrid
MED
NV
Wer
Pend
##fo
##otta
Boat
Wyoming
loved
nervous
##ramer
1493
Aeg
965
952
Hyl
Theor
traced
573
handled
Hort
Rising
sacrifice
##landers
Volunte
Kul
fraction
637
Jerome
talking
##opa
Barack
958
Critical
divide
carved
Papers
opinions
aerial
Almost
solve
Irving
payments
##issus
amphib
Female
##imar
Thur
Git
##utational
whatever
Atomic
Everything
sailing
fragments
1578
##oque
thrown
##achn
1587
registration
Odys
NSA
S4
##heed
depr
594
Rhodeus
Random
##emus
anime
Sho
acut
destroying
oriental
Fletcher
abb
Carm
975
Derek
Tropical
##mor
brach
KR
lord
Hex
##teau
Hampton
Ole
unm
Normandy
##rema
Barth
Away
Socket
1675
1709
consumers
Morocco
rays
##missions
Lithuanian
Raph
monks
785
792
Robot
thrust
##mud
1544
transpar
##acs
##este
Belt
complement
colonists
bias
##oped
cabin
strategies
##aternal
##otocinclus
DEST
Mou
MAT
melt
##avo
suppress
Russians
Taj
rises
##plane
analy
1584
Civic
##yder
Ort
CR400
urged
clothes
##tec
VM
##oken
Coffee
accounting
##hail
Pixel
Cyp
##wi
##ints
1674
leather
##116
Driver
Targ
consumed
##enhagen
Cyprus
##ongensis
##ADE
embarked
addresses
Muss
##ellites
0000
Alchem
GW
exports
##ushi
##jet
abd
781
Falcon
Confederation
chapters
tributary
Zhao
##vil
bund
LU
Inner
pard
##stad
Spark
Proto
veterans
vibr
Constitutional
endorsed
Riley
Und
741
##YPE
Southwest
976
Desc
PSV
Patricia
Often
explore
##UST
Stefan
##OKAWA
##ratus
664
pregnancy
Diss
HB
Lot
beating
regulated
Savage
phyl
##elih
pope
Sebastian
Dies
Located
1050
1602
incorporate
Lands
##emma
Brady
Brussels
Greens
##acillus
Polyt
Applied
PS4
4B
buff
895
Meteor
undertaken
Tomb
oak
##osely
Monkey
cooking
##gotten
Cambodia
Magnus
manifest
helicopter
Rams
##inz
Alternative
##word
##oser
cycles
Lys
RN
12000
Graduate
Smile
Improv
preparing
lobby
cannon
Lyd
DREAM
##frak
eaten
sect
eliminate
HXD
extant
profits
##ourier
Stafford
Fuk
##aceous
Shu
inscription
pregnant
Plectranthias
##ctica
##iculatus
Augustine
champions
systematic
Prair
Maker
##reshold
##cephala
Ping
##beat
##reated
Better
excessive
##ribe
airports
macul
Strand
Leicester
subordin
Peer
KADOKAWA
Mouse
Resort
gamb
##assis
##ouk
traits
graphic
Adult
733
dramatically
ruins
touchdown
marketed
assim
destinations
escort
Messenger
LF
Carth
Prague
##found
##thood
##oso
1542
##ibald
804
ATS
Sach
##eer
##igate
Parkway
1591
conversation
ABA
1558
PART
Tale
mock
mathfrak
unst
Delhi
remarkable
Cret
admission
Happ
Via
owns
##cu
rej
789
loyalty
bankruptcy
##ayi
##urrent
flagship
terrorist
Marin
##ocybe
legendary
##elihood
G2
##ruce
Bram
##lot
##ogenic
Andreas
##tia
Stap
665
Portal
reads
cloth
Dyn
##cot
687
PCV
##ordination
Planning
coordinate
pupils
CAP
Tud
ga
chord
coupled
Greenwich
judgment
Til
Schn
Grass
##into
advances
Bean
eM
oath
VPN
##ranger
unified
crowned
excluded
B9TL
##xt
reversed
Bergen
ions
Truman
reflects
784
##abel
##egu
##onstruction
inequ
acclaimed
Traditional
chinensis
##ICS
Gmb
reass
1599
maneu
descriptions
862
Present
readily
automobile
2x
1510
##ophaga
Sequ
commanders
prominence
Dana
Ik
bomber
cro
Meh
Annie
Lund
RGB
##isle
1412
activists
riot
##him
##urrence
successive
Resist
abundant
tin
sten
Tolkien
forg
mate
och
##gio
Sacram
Schum
module
Headquar
runway
tensions
Carson
suffix
acclaim
ROCK
asy
Interior
JSTOR
frames
1711
attractions
Erie
mood
1734
gentle
incidents
##ographers
rivalry
Bronze
Script
fourteen
governmental
isolation
DESTINY
Muk
m3
##uve
1712
Prob
Companion
hack
null
Judy
Hg
pic
overcome
scales
reunited
1512
brut
wage
static
combining
Gaon
Xi
##zyme
Eustom
Unity
##nez
Sales
##ijk
graduating
DUNK
Tucker
##gee
accent
sixteen
##artime
1702
cheese
##iopteris
Nez
Neolis
PCG
##OLD
Neolissochilus
Bates
Indeed
founders
adds
chicken
763
cease
##IUM
triumph
Population
Standards
566
831
artwork
##itational
trips
Leipzig
Gius
Nath
1534
##illiant
Hearts
Strept
rigid
Dixon
##ellan
657
heading
EXO
Eustomias
Sask
examined
Benson
1204
loaded
platinum
corresponds
Foss
Pip
REC
unre
776
Recre
DSi
determining
mere
planted
1594
BIOS
##tym
Ornith
precurs
Witch
1415
##LAY
Vaugh
tier
Gesch
##AB
1440
exterior
Suica
practition
cooling
attributes
Jules
journalists
Pearson
haw
Newark
interc
Requ
887
WOW
##rei
##ocate
##aceus
admir
828
Depend
Pha
696
924
schemes
Assistant
##tail
dealt
##evi
nationalism
CRH2
Agricultural
Bub
gains
Kod
shadow
Biology
##liminary
##opyg
939
Burlington
determination
Additional
KN
Tos
##omorpha
Holiday
1699
##203
sporting
070
##atas
##mentation
gast
##arts
##arpa
##104
857
reviewed
Ferguson
Neal
japonica
##rint
Coming
oxide
headquartered
Ner
concentrations
ETC
ocell
843
Acts
##OND
Dreamcast
Chelsea
10GBASE
determin
Roeboides
Rig
lineup
##ookie
944
##CL
aided
##omple
##usive
monuments
1656
lung
##usia
##ffice
EST
Logan
reinforced
corporations
AFC
##ACA
1692
882
Griffin
2050
##SU
##ariat
1703
Gateway
Nept
Wish
979
demonstration
differs
##say
##verse
embedded
suggestion
reporter
Pb
uprising
##aan
##atio
809
Consequently
724
Lans
##ALO
partnerships
catalog
##agasc
##ommon
exhibits
facilitate
Pimel
##ingers
Holocaust
Lenin
GmbH
##adan
cream
Willie
immune
sib
##izable
decree
sufficiently
mast
kidney
Vor
asserted
PROD
belongs
ded
##ishn
foundations
A300
##imedia
peripher
Duchess
1545
1502
Zoo
bassist
hierarchy
wick
php
anchor
decisive
Sino
Syl
ara
##str
impris
invas
Deal
Flat
WWF
IU
brings
897
cleared
Perc
##ophylla
Asteroids
Piz
SMAP
Mnchen
cruiser
1012
898
disbanded
KIA
N2
1514
Knowledge
Jub
Kazakh
Famil
till
loose
steady
Spa
bigg
Sacred
revision
Strategic
Cancer
ramp
##py
##eling
specification
852
##aults
Sunshine
advantages
Numbered
Lingu
ki
algebraic
incumbent
preference
HCl
hind
##etter
freely
businessman
Priest
Proceed
Sci
Tian
councill
9780
Lun
Churches
##ITED
athletes
MBS
##alm
##abo
##perus
012
Mayer
Berm
TIME
1676
732
polymer
663
Corpor
humor
1880s
recreation
cu
1508
generating
TCM
Conservatives
##itars
volcanic
attractive
molecule
NFC
1576
883
Recent
Outstanding
##ocoris
subtropical
Circumstances
MIN
Armenia
Hastings
Sisters
##adin
nowiki
Satellite
DN
vest
##zens
metabol
Giuse
lam
##ichoer
contents
methyl
##oprop
Christine
Smithson
##aic
honored
holy
##aq
##foot
Grammar
moist
##roth
Dust
1506
Actin
Dee
Wah
superc
motorc
pneum
JPEG
Hau
saving
##ampire
Moraes
##Cl3
Hoch
NDS
##icula
##oping
1505
842
##rk
Struct
Salis
Interp
qualities
lfloor
rfloor
869
Rebecca
Michelle
scal
896
effectiveness
IMF
innovation
Loth
tram
professionals
##ipelago
diving
##inski
developer
H1N1
Cash
Lp
Tung
ros
Lynd
mortality
saint
MN
1086
responsibilities
Nes
1460
editing
Nigeria
##fin
##atile
8B
##jud
prod
Marri
propri
hopes
auction
inaugural
Character
physic
Soviets
826
FAA
reconnaissance
Marines
Perf
Roberto
##hausen
1528
Prok
download
limitations
livestock
imprisonment
1743
##107
838
Liberals
##azar
4200
959
846
Notre
Anthrop
Sonn
779
Rust
Sph
SOD
Zo
noun
Copenhagen
##illi
##peria
libert
Pig
##ultural
1564
Fortune
048
hp
1130
Telegraph
##leigh
##ippon
depicting
Sinclair
Rous
sad
atmospheric
Destiny
alp
Adelaide
GI
##azzo
ETF
Experience
Glypt
Monter
##acies
absor
##IKI
Isabella
gases
volcano
similarities
Ptolemy
DG
pus
##adas
worse
Joyce
Superior
Randy
##Ch
kingdoms
Dent
lots
Meeting
fiscal
jew
ware
stip
outs
Colt
anywhere
Olivier
B12
counts
##days
Wein
technological
BLUE
exhibited
##aspis
ecosystem
##bye
1687
Magnolia
##ithmetic
Velvet
KD
redevelop
enthusias
##pherd
Corydalis
Sob
mim
##olec
vicinity
warned
M14
##hera
chips
relied
contrary
##ships
editorial
##sein
Peterson
Chip
##eplay
blank
denomination
##aird
submarines
##H4
##marine
lanes
##quez
feedback
Print
##oceros
##actylus
diagnosed
##eles
##oneis
acet
Flora
##ISH
Chaos
tailed
Oss
RED
##ophon
931
##hensis
Toul
##arcus
##inks
maxim
Buc
circuits
discipl
voices
arbitrary
##ifiers
possessed
Uz
rally
##TRA
Hale
Instituto
NEO
Idol
cheap
Slo
Sauss
Aboriginal
sketch
Save
##fax
Thy
dishes
athletic
P4
bib
##inatus
nevertheless
STUDIO
rivals
##sover
654
745
collecting
Headquarters
Ding
##omach
spawn
dyn
ATM
##NTech
BioNTech
IPv4
##utter
Belarus
emissions
1668
1682
##historic
##uran
##ulae
stolen
824
Aristotle
tune
771
minerals
##onge
##avis
##103
Tox
fox
##RE
Stell
Metz
motif
1596
Dund
Guitar
Sudan
Eut
summar
viewing
furniture
sul
##CF
697
Diocese
##bek
lecture
##Dy
##odic
744
financ
Surrey
Kyle
Sara
##endorf
wolf
##ceus
Might
Vn
Vall
##nick
##Wiki
Helic
achievements
Noble
Rhy
##ubs
853
ICD
Distrit
precision
Programme
##SO4
1280
wildlife
xanth
##ilo
Claus
564
Skype
Megal
drafted
owing
nutri
Oliveira
marched
peaceful
##lesiastical
KG
Xia
##asus
1230
Parac
Majesty
borrowed
Gian
##endent
1678
Tracy
hosting
Luciobarbus
dinner
##iously
panels
Ech
whites
Franch
brass
Elvis
##baum
tai
844
Randolph
Hyg
font
Trach
applying
Samson
Lug
1066
ko
Jackie
dissolution
##elus
Stir
##trak
Hits
fut
Different
ELS
Gle
Kru
V2
##hero
##reb
##ourself
##makers
Josef
Cyc
##itum
Proc
paths
##Te
799
reflection
##rophys
Gaming
Bryconops
Euphorb
Phenacogaster
Odontostilbe
##ndez
##itivity
rehe
incons
##128
858
Cortex
##elian
##ailing
##hawk
Sikh
Languages
Manning
intens
skilled
carefully
risks
Cust
##houses
Evening
AMC
##ellum
Clara
vocalist
pear
##irable
##itta
Providence
emphasized
sophisticated
employer
Dodge
##enza
Combined
explosive
##see
Scotia
palm
mph
##ikes
verteb
conventions
shelter
Ez
1513
borne
Fabric
##alions
##raits
indoor
Guards
752
tales
Anthur
703
generals
moments
Dh
recruit
##usters
Prote
achieving
ancestor
zeta
##V2
Gener
788
CBE
maid
clients
Bosnia
Cedar
lunar
##rared
1180
acre
Flav
693
Tomorrow
##wagen
entries
tenu
Million
##lore
##Office
1515
Argy
pronunciation
manga
669
766
Wednes
gland
amino
FAN
turt
1549
Window
companion
unveiled
cong
##eward
shipped
##raphs
Dominican
OpenStreet
eagle
negotiated
struggled
CRC
draws
MOON
climbing
Jab
Myster
holder
hydro
Literary
##enary
Moham
Anthurium
ease
##chy
3300
##VC
emergence
NTV
851
pink
Debian
Shirley
##aric
commod
DRM
NCT
Salisbury
##epage
##iodon
affinis
Holt
Helena
lex
Veronica
expressions
##iso
##uzz
Halichoer
Religious
deliberately
Voy
extinction
Silent
Camden
consolidated
1617
Thurs
##ermat
##nea
MIR
1579
commands
Arabs
wool
954
859
ASP
embry
##arynx
Fashion
railways
Dudley
hunt
genome
revenues
responses
resistant
irre
##rible
valleys
Clifford
##erule
instant
982
893
dominance
boxing
HIT
WM
995
pleasure
investigated
tiny
servants
##elfth
acceptable
OpenStreetMap
Ment
Brent
slot
##ENU
contracted
splend
NES
##jab
1466
##endon
Acad
lessons
assumption
Fuller
dign
Gos
OEM
1478
DES
kHz
##gren
##zym
unanim
perp
destroyer
Cowboy
Nepal
Sophie
bon
Santos
##through
Eisenh
Hels
OFF
Sanct
Minne
Soccerway
gem
rhet
##enko
blast
1608
machinery
IDE
Battles
OUT
723
constitute
Prairie
##dit
Angiopteris
essays
Giuseppe
##path
##annah
906
1552
threatening
Graphics
Amer
##ivided
Pierce
uniforms
854
823
943
Bonap
protecting
##grade
##atri
##123
heavier
diab
lamp
##lette
switching
sar
Wee
##aye
phases
Castro
TRA
blocked
crews
Argentine
Kens
WB
critically
##aguar
Halichoeres
insert
Mormon
tonn
##post
##uder
877
Keat
##A4
chorus
Memories
traders
armour
Xer
699
1704
supposedly
Hence
T4
##VF
Threat
##inkel
astronaut
NOT
zur
McGraw
Niss
889
Tournament
Nottingham
rhy
Garcia
##cules
F3
##estial
vacancy
weakness
innovative
Bavaria
##imeter
Alexandra
##mos
seas
782
burst
Signal
watching
Purple
OB
##7N
##editary
Boyd
bachelor
CAR
Rost
Pride
##iorh
sweep
##ynn
battalion
##omorphic
homosexual
##RAM
remarked
pounds
spelled
abortion
##125
CDC
memories
##AGUE
##advant
fruits
Eugenia
##oths
recipient
Tactical
lan
sided
##uador
##ogly
zu
##achys
Phoxinus
##cephal
spirits
trump
releg
822
combine
Hoover
##onts
Beeth
743
hatch
##enteen
1719
Als
Simple
communicate
Initiative
##Star
Uncle
Barri
cement
Economy
##utic
##chant
Alam
monitoring
Parsons
1487
broader
imaging
946
Episcopal
##aternity
Bengal
insufficient
##onscious
Midnight
Friedman
Candy
Wanna
unrest
Movies
##obrama
Coleman
vowels
Cairo
##ulosa
clause
princip
1457
precisely
##raints
australis
Ehren
##curve
##des
956
Networks
##enny
Perth
Erich
A7
##opters
spont
##angensis
Blo
Amtrak
Else
SCAR
Rebellion
Duk
Wak
thy
1663
eigen
##arl
synchron
##birds
##ikov
Parotocinclus
Scheme
Hisonotus
limestone
Pinus
RR
Rue
Rules
VJ
##Tok
##lighten
Echo
Nd
764
combinations
substances
D1
##agara
972
Observational
BOT
KING
753
predators
spotted
heroes
Minh
curriculum
1705
favourite
Fatima
mystery
Gap
wishes
##ERV
##eckermann
1561
Hers
uranium
Mare
866
elegans
jointly
Vehicle
Pied
Demon
proceedings
shapes
casting
##vier
endangered
accessed
Ambassador
happens
Tl
traces
983
Azure
Casey
tactical
Euphorbia
threw
deity
##otherapy
Devon
1469
pursuit
Rag
Ask
##heads
symmetry
Oligos
##hp
meteor
Garca
argent
Turks
##oglanis
cultivated
Moll
amid
Seoul
##bitious
##isting
Sham
knows
whereby
lover
1499
liked
favorable
Hep
wonder
##aci
##lesh
Monica
preceded
scholarly
GUI
##ERN
Dancing
##atia
##ilitation
stance
entreprene
cultivation
Wass
1127
739
##boat
interactive
Neigh
collectively
Babylon
B7
Tick
tubercul
Amar
sentences
analys
Eleanor
U17
##rius
##ifax
presc
amaz
Offic
routine
##eros
Pred
Poles
Adel
protagonist
Consider
Charleston
Sharon
##duced
Fleming
Sutton
Bard
1566
##ivities
chemicals
Britannica
trademark
Ueckermann
##opf
specialist
ITU
Schwarz
736
Chambers
Manit
flexible
##ulative
Sunny
Nazis
##iancistrus
MIL
RW
Charax
FIA
LIFE
screenplay
Oligosarcus
Gd
Tues
##Si
identifying
Matter
##IZ
##iances
##aryotic
everyday
Philharm
##900
##books
Applications
1708
##LR
Guatem
rebel
User
ANSI
Sense
##rak
##rez
1563
Lightcurve
Gong
phy
##kW
1533
##obotia
Graves
countryside
apost
##ozo
Insurance
##gart
##uchus
795
942
infected
Ecc
UDP
##obacterium
WEB
1716
##111
Mozart
burg
McA
biographer
Eisenhower
Wien
1504
Transform
Circus
1220
1475
##ogical
Schul
##bone
transp
##118
URI
##cover
746
Nichols
Rafael
974
Kitchen
Ferrari
##asso
##odrom
trunc
guards
locomotive
Tou
suited
reactor
tournaments
Phyllosticta
Wad
modifications
neighbourhood
Mask
797
1067
sediment
rifles
##JI
heated
requests
GNOME
testimony
lacking
Minneapolis
Wille
declining
governance
##otti
shortened
Thatcher
Give
lang
998
3166
transmit
mall
##E1
Byr
A8
Gut
wartime
contacts
##ochond
Kenny
##actus
Beethoven
ok
Chop
Tennis
albeit
McF
Kerr
Bradford
Catalogue
##oise
##elic
1430
Confuc
transf
BGM
forec
Stl
guerr
profound
Achiev
disgu
##ERATION
Bibcode
Becker
##egia
interim
##ductive
CMOS
bure
depicts
Computing
cultiv
photograph
Cron
Sung
##ilin
locals
847
##unker
Mikhail
LEAGUE
Gandhi
Electronics
respected
Programming
extraordinary
enabling
summon
Lich
emission
inferior
##ZJ
Capt
Wess
lent
##agar
##iku
speculation
##UTO
luxury
Albania
Liz
Chiang
##yns
Bibl
Universities
SOL
##ometime
dupl
SHIN
Extreme
##DyS
Hopl
Perm
batteries
Gmail
Barrett
TikTok
Chao
Shannon
ethics
Graf
1537
##oughton
677
Lorenzo
K1
Torn
Kerry
abn
964
blamed
Danio
IK
##ivot
philosophers
ak
##PH
Alive
retrieved
slopes
loans
celebrations
iter
016
1539
crystall
##lightenment
journals
Galile
Sheriff
##iaceae
992
consonant
Tram
pand
##pike
##atisf
Sainte
competitors
projected
adjusted
Mahar
##mour
Eliot
satellites
habitats
##ilight
##ardin
spell
LCDB
SBL
##isen
Swing
AstDyS
Seventh
##essing
Brisb
1097
DSP
1694
Orient
##isons
841
Aid
dressed
##nton
##assa
894
##elation
infin
Gond
##alach
lengthy
Schneider
Vald
Recording
Reconstruction
Clem
Lod
evangel
932
Weiss
##lord
jurisdictions
Tub
X1
Geo
Teams
wreck
Symb
Gods
recurring
strain
reinforc
Practice
Nile
##mitt
##assium
Comment
##ommission
Subsequently
witnessed
##inosa
intact
enzyme
##aek
Macross
thoughts
##leen
Annapolis
Chandler
CTV
Rim
Wet
eB
##ocide
Strange
Reader
868
occupy
##ypus
591
denominations
##arden
##ritt
mixing
UCLA
##ATH
879
kills
Indianapolis
minorities
papal
Update
Gunn
medals
archives
1215
inverse
Pioneer
wit
##idos
Smithsonian
cath
##outed
##inguished
Ara
Beaver
Amazing
confined
Brisbane
trop
##akt
##ongo
Robb
bibl
##iratory
garner
Loch
Tiber
##360
Pepper
LB
##athetic
Gupta
ms
Geographic
kilometers
Jorge
Popp
hipp
##ergarten
Bau
Election
witch
##onius
Stur
##APP
1581
angles
SATA
Tate
trio
ATI
Dix
KTV
expenses
Chat
Aberde
Lunar
Barber
Northeast
##itate
impair
827
KE
auf
hymn
misc
Anom
1501
Pseudoc
PPP
correctly
governors
Estab
nobles
MOOD
Angela
M6
1696
##ryn
Emil
EPA
Ivy
shirt
certificate
muscles
prestigious
Hick
shed
1020
Urs
SED
##akov
investigations
Dunn
Eck
Mund
kiss
##illas
Roh
Jing
Tup
ink
insect
thumb
disadvant
Edison
Historia
839
##cliffe
synthetic
prolong
Laugh
ACG
Welles
Patriarch
RL
postal
swept
declaring
Romantic
cov
spots
discrete
Aires
1543
observe
##Space
cauc
##kre
Adri
300ER
##limited
Dup
##hele
Onc
knight
motivated
novelist
Zamb
##ARI
crus
Horace
##ilabeo
TYPE
##pole
1546
Reason
##neo
telev
violation
Azerb
choosing
Bols
pipe
regiments
Berger
mistaken
specimens
Joker
##ande
repairs
Cooke
Fitzg
drunk
Baden
WHOIS
Bash
Sb
Mirage
geometric
summary
lumber
leagues
772
##ysts
discharge
Cove
Rita
veto
Promot
987
Corb
demanding
Emerson
boxes
Negro
sunk
##entz
##udo
harass
Landing
##usk
Covent
fro
##ilers
1380
867
Gymnothorax
##iblings
##AVE
##iq
conting
Resc
Verb
Passion
aq
cater
##amar
Reformation
Pleasant
P2P
adequate
2M
Dahl
##eleration
##rodes
ensemble
Proceedings
##olon
FINAL
crafts
springs
Pard
Ames
Help
immigrant
incomple
speeches
Eva
Portsmouth
Gest
Guns
Zimmer
vern
Reh
Glob
Ces
Uber
threshold
rehab
adul
adject
Bonaparte
Ll
boarding
composite
liturg
Diplom
Nun
##asonic
Lamigo
jo
ridge
Engel
longtime
Airbus
Buenos
##zed
##amorph
Farlow
lav
##with
Percy
explaining
Singles
##AFTA
Rural
##ounted
Application
ANIM
Leonardo
diamond
Azerbai
Sally
##icking
##ysc
disagre
1686
allocated
773
Herb
labeled
Mile
M24
Lao
##mart
invested
Principles
hazard
##iconductor
vend
##opez
McCart
Cous
##OOD
commanding
963
Resource
terrestrial
enterprise
SKY
JB
Lub
resolve
892
Cott
ranch
Molec
Behind
Beverly
##oti
reper
1206
townships
conflu
##icans
922
Santo
##ricularia
continuity
##aniel
grows
Triport
##racted
Alberto
prosperity
graduation
Berberis
Pablo
KP
VGC
vectors
plains
Blume
voluntary
Dap
Flanders
GG
Mood
##ecute
Walsh
##ught
Gaelic
crust
Paulo
CH2
Cromwell
Triportheus
herb
missionary
mys
revenge
doubled
KISS
Xavier
Sched
Davidson
Fiji
NOR
##ocheirodon
alumni
Riverside
eject
neb
##roides
Phillip
Capp
PAC
Tran
Wine
drift
##kind
Compar
872
##ythe
SEV
Burgund
##gon
vegetables
Emir
objectives
totally
##izo
breakdown
phylogen
##amen
passive
rounded
Hymen
Cars
publicity
856
4E
Raven
cris
duc
arise
lateral
airlines
Subway
##2O3
MOODYZ
##sta
landown
749
destroyers
Riot
##long
##mu
topped
##elage
notorious
intensive
Marina
quart
factions
Antiqu
Matrix
##ichen
cler
829
birthplace
Gloucester
buck
Counties
descendant
LIM
##zu
##BW
Boiss
Telegram
Cors
1498
lean
conclus
disappoint
Ethiopia
balls
Thun
Orion
OpenGL
Rabbit
Pareiorh
dragon
##eau
Grim
topology
visc
##onte
1420
grace
nodes
rape
##EW
##rices
Dn
##zone
PX
##ancers
buying
purple
sailors
unofficial
railroads
vacant
Typhoon
Piper
geography
Citizens
upcoming
Millennium
erosion
##CAR
1002
YouBike
Grac
electromagnetic
##ometown
repeal
CSI
reasonable
IFPI
Lexington
##VEn
##adus
##irrh
##ulo
RIAA
##imaculatus
gifts
wages
##Ware
Brandon
ICOCA
affects
BJ
HH
PAR
decomp
1369
Humphrey
interrupt
861
secretly
ELEVEn
Czechoslovakia
Gris
pace
##fold
##arger
expend
Controll
Freud
Coin
##nders
microlepis
grandmother
Typically
Byzant
FAT
Tec
##162
strongest
##AAF
Lowell
stepped
Manga
halls
##EET
activated
loading
Osaka
compuls
Leigh
smoking
IRIS
displaced
##pectives
1557
##rale
polym
Catholicism
Giul
resemble
##chn
processors
##CO3
Clayton
Generally
Zach
##terson
Avon
macro
Nonetheless
##bry
Rg
dynamics
##had
Sof
##uctu
Issue
mapping
##aryng
Botan
Pretty
Rockstar
IPTV
storyline
Nielsen
Speech
ABS
Mih
dances
Bois
Lindl
Brighton
Dragons
Ip
Prit
Snyder
Release
bench
##lings
##oder
Transfer
optional
Hof
MIX
Pius
25th
millennium
Thousand
Gat
Temp
##kie
retaining
ii
Poe
Shawn
Basilica
##court
##Down
triv
##rg
theological
observer
Impact
theaters
apprent
Evan
Honour
Ary
Jag
Pedic
Venet
Function
##qua
##ansen
Miranda
deceased
025
Mint
Jamie
constituted
Monthly
Parap
Babyl
LX
##ailles
##uya
##entric
##ichla
##ophus
##ANCE
039
##atiens
Concern
Hash
##rias
##plant
##ittatus
presenting
maculatus
Gibb
ZK
ICC
physi
Ladies
Certain
##itism
##iona
##oting
##istor
organize
Cyperus
inscriptions
SOS
##olom
##imet
silk
##senius
scripts
##otting
pressed
Bound
Sox
##onico
Zeus
mun
trigger
##inki
webs
##wait
inheritance
Clock
Lightning
Bhut
Lumia
##IES
Select
Gobiobotia
Chaudh
30000
Buddy
civic
##estown
noticed
parody
Jah
rup
##atore
timing
Bryant
Elisabeth
Sacramento
Gou
##chis
##ifa
Alps
Crotal
E4
RBL
beet
Seymour
Zool
##matic
slope
836
977
killer
rotating
seemingly
Icon
Pub
statues
Hole
kl
Steg
Utricularia
Sexual
Astronomy
conjug
prose
Suzuki
Writers
P1
siblings
##ptions
quit
Smack
lance
committees
941
Cyprin
Grund
riots
Batter
Zimb
Monitor
Approx
appealed
affiliate
mars
##evich
Joey
anger
Buster
Barton
rituals
Puccinia
Xin
soap
832
849
##unnels
cellular
annexation
enlarged
convenient
nic
##arro
Plato
Corv
feast
juven
Integrated
SPECIAL
Luna
##F2
##ulas
##ocols
Virg
Lal
Saga
##119
supreme
Loph
WTO
##onga
managers
collision
dropping
##kei
Ashley
ecological
ja
##ugs
bombard
ONL
campuses
wireless
Fitzgerald
dan
##oved
Manufacturing
Brief
083
marble
AMG
Lah
##nor
##esy
##perors
Herr
BOOK
Darkness
##acula
1706
Dayton
##rels
Matsum
Hik
hast
Reporter
CGI
Nassau
dia
porn
strips
projection
Petit
Organisation
##arnation
delegation
elongatus
Bene
Gone
arrives
Arsenal
iv
trap
##blems
M8
##umo
spo
##icaud
insurg
incorporation
cats
sued
arid
intelligent
drainage
1509
Perkins
prosecution
Restoration
Antioch
economically
incorporating
##gestion
compass
Linear
guarantee
25000
##arez
warriors
##emont
##ulse
stamps
uncommon
subsid
lymph
complained
Newfound
ambitious
guidelines
Cure
jam
paved
Oy
etym
frana
1470
servant
Libya
Destroy
Eclipse
##heart
1695
recommendations
Poetry
Resistance
Moment
betray
793
Holden
Bact
lact
Therap
##ophrys
SPAN
##ihan
Krak
receptors
obsol
##kill
##Jo
##orie
##endi
treaties
microph
Wade
kernel
spil
enzym
Coach
absolut
Fork
884
Perform
protective
careers
1693
774
Emmanuel
Dres
##holder
Mesopot
ah
##vae
fortified
proceeds
Pomer
Vig
inquiry
Scarus
##eption
Herod
accounted
Semin
Farlowella
##FJ
##ivism
1496
technically
beaten
Dag
fart
1007
734
769
1554
##bahn
latitude
Associated
rehears
Lite
Photos
sponsor
##agrus
##uning
Clyde
##alp
##uron
obtaining
##ructive
Multiple
##phaer
knowing
virtue
Tip
Meet
Romanogobio
Alfonso
Middles
1234
Evidence
Recreation
BLE
lion
##BM
electro
873
Clarence
##erry
discour
depot
publishers
Overs
L3
##etches
1890s
absorption
Ft
whale
Pratt
screening
mandatory
Caf
squares
Patterson
HAL
Siege
xx
##hai
##lew
escal
watershed
enlisted
##BASE
##arse
966
##visor
elderly
Hond
Nice
bour
fals
Brom
trem
RBLs
##nas
Aless
##itsu
Geass
yields
injection
Barker
##wana
Expo
##uko
##itzsch
Vulcan
trilogy
Lions
SAC
hell
##heid
Bez
##licit
fertile
orientalis
DW
gel
1279
Employ
ARC
FCC
battalions
legitim
mansion
Melody
astronomy
presumably
Thorn
courthouse
##raneus
dose
hereditary
993
##ningham
Prefecture
NEXCO
Numerous
Doming
Killer
warrant
067
unsuccessfully
Spike
Neill
##enoides
Cobb
enclosed
impressive
##rained
Intern
Sheridan
Aph
Dell
haul
##enter
##ealous
explor
Outside
Kirby
953
passages
digits
Impatiens
mobil
hob
KBS2
Dat
Paw
##orium
##isches
Miracle
consequently
bicycle
anxiety
Jake
cher
Croc
flags
Macedonia
Wednesday
ups
Nigel
Cary
##Ex
trapped
accompanying
PRODUC
busy
##linary
##226
telescope
pec
Trevor
interviewed
4x
butt
Display
Halifax
Copt
Worcester
Cet
##acio
##ayette
Plateau
Fou
ethical
upgrade
##ummy
harmon
NGO
891
Sieg
Jacobs
enhance
W3C
lod
##IVA
Midway
biblical
Bathy
##card
989
Regard
Gior
Europa
liberty
##iventris
25G
##hner
demo
listing
dispar
Arabian
Cartoon
##H2O
trucks
##ridges
witnesses
reiss
Sanders
Clap
Gloria
##dish
Hammond
Gerard
forbidden
Teresa
Import
jersey
subgroup
dozens
Pond
AGE
Hussein
Elm
Booth
stap
##odynamic
formations
Cornelius
MIDI
Tn
spear
feathers
Showcase
Addison
Euler
wives
retros
migrated
##ilingual
Weapons
ingredients
##esters
##aptor
container
terrorism
Glacier
jur
Palat
Disp
Jenny
watched
Tuesday
IOC
Serg
onset
##geons
##echt
##agoon
Detective
##jar
Products
Gephy
##igator
##eport
##indach
Agnes
STARS
observers
Valentine
contamin
##achim
017
##ycles
Medicare
Bagh
VB
makers
plaque
##schen
combust
##esse
Augusta
Aurora
outcomes
PAS
cott
xy
CGTN
unpop
lep
1017
Stay
interfer
nominee
##asan
##reich
colloqu
Borg
MET
lawyers
##ighthouse
utilized
Johan
Leone
Ghana
Thursday
caf
missionaries
Essays
Jol
Tea
inev
##uckland
lifted
##iem
##kers
declare
YOSH
stopping
Schles
Mb
ideals
intervals
Indigenous
postp
Artillery
MIPS
congregation
abundance
rejoin
Resolution
accepting
Armor
feudal
providers
miners
054
899
realistic
exempl
Pert
thunder
reliev
peers
Events
privileges
brilliant
##oof
integrity
Marxist
offspring
1276
##ewater
affecting
Roads
costume
##atchewan
DOC
1190
Chr
##ORT
integers
FreeBSD
SONY
Lockheed
dictionary
##rocess
##heny
Noah
architects
Pist
##FET
##anium
limiting
Zel
##hee
##ETF
##aguay
Belfast
Gilm
TK
Exhibition
##ophagus
Twelve
negotiate
Rescue
cigar
performer
devised
modification
##112
1494
harmony
HL
solv
##inga
Brass
Infinity
inventor
##inisc
##soon
MRI
1480
sher
50th
Schen
creatures
Aberdeen
Sue
Vib
disrupt
Kell
Pils
yam
Plac
opens
1691
accomplish
pianist
hitting
revol
sitcom
m2
Distribution
Mald
Wey
joy
herald
pottery
apolog
1s
##EF
brack
##rews
periodic
Rupert
mascot
stomach
Chain
##ongs
Safari
Mohammed
Pole
yearly
regulatory
bor
##114
JN
YA
ZF
##arensis
blade
counterpart
Crotalaria
2F
Nicarag
reservoir
Biblical
Higg
Korn
Oce
1531
artic
Willis
Hiro
Luk
##how
Alone
##ropy
surveillance
Rubus
##izational
##izards
Carrier
Valle
altogether
Spotify
GUND
muc
##ismo
specially
871
BirdLife
Translation
Defin
cartoons
Hubert
steadily
marriages
Newfoundland
##enus
Ready
confident
dw
prone
Hercules
Depart
Oslo
AJ
trends
brands
antis
qualify
Maurit
1677
tickets
H7N
Alph
##adequ
##cks
##Me
1371
finest
graduates
Vander
pagan
stuff
Alto
##angi
Spy
Khmer
##eba
slower
domains
counterparts
institute
masters
dorm
##mare
##ioni
induction
organism
dinosaur
##arit
whales
##abwe
Portrait
Coss
Katherine
1340
disabled
Highlands
Jal
Vid
strange
treason
inaugurated
Pike
tack
Arlington
selective
##ilabrus
2G
attitudes
joins
accurately
Erys
Gore
Nir
##uinc
1449
overh
Into
##iad
##oop
Credit
##frey
##ZZ
051
loosely
torture
Cavalry
Draw
Fasc
##DN
##inkle
053
choices
1671
arithmetic
##otaenia
Tigers
CAD
Ranger
##music
##imson
relates
whenever
approaching
comedian
1275
##pler
indef
Amiga
diary
A321
Strauss
K3
choir
##afts
991
cruisers
Humb
Nann
Poor
Verd
matching
Animals
Sergeant
Forward
Isles
prophe
challenging
pocket
arter
Irwin
oversee
complaints
Crosby
##ALOID
Ebert
solved
##ayana
natives
outlets
##hya
decides
fertil
Educational
##woman
Streets
##heses
operas
1507
Irene
Won
Zag
pointing
Prez
1454
Bism
amalg
interpretations
Voyage
ist
##bad
##cience
Chant
##ologic
directing
performs
Buzz
##IMP
Classics
lengths
Savoy
Swe
##rika
##ptus
Lup
##oS
##obic
relay
Urug
sank
984
successes
3800
bigger
Sophia
Opposition
dwarf
coding
Abbas
Primula
assignment
Xperia
##INT
advancing
capturing
##ariant
##ilic
reef
Shap
Scouts
Judith
##olini
##owe
melody
Niconico
##370
monetary
Limn
Wrestling
##rinus
##TI
1870s
commemorate
resided
senator
illustrations
Bant
Blind
##ashing
Vaj
Els
Neut
Diane
Kron
##ingi
Hypsel
Goodman
Caus
Casc
repet
Radical
MacDonald
Fowler
Saskatchewan
chim
##124
MacL
employs
ensuing
Biz
1125
Sterling
Funk
UI
barg
##adian
##raea
Hawks
Stevenson
##heet
##opo
1481
motorway
aluminium
mn
##yang
##istis
##oulder
Deer
inserted
B6
attain
##umia
Moj
##zlez
Bolshev
##PINK
Chick
949
STR
portrayal
aggregate
25T
meal
Regular
Laun
791
Something
pitched
Immig
##uble
1503
NH3
SUMM
Gonzlez
rost
##ioned
Bly
Pill
ky
Hui
Occup
HOT
dolph
pinn
rept
##actory
Confl
Elliot
Doyle
##building
Bic
BNT
spreading
Associates
PRODUCE
##117
Reformed
BLACKPINK
Lafayette
Fold
##lop
##astics
Compact
Dawson
1040
##odor
##insk
conviction
feminist
Suez
Britton
imb
##kit
chin
Musc
audition
unpopular
Hng
Liqu
##asium
lease
Albanian
Yun
vine
##thia
##oded
designers
Property
1548
expectations
VOCALOID
Aqours
##CR
Madame
purchasing
UHF
Thanks
tracking
##ecesis
coefficient
Alv
Christina
Ministers
##DNA
representations
custody
supervision
Competition
incomplete
BLEACH
ml
Constant
encouraging
##hedron
deeper
licence
Saxony
Novel
crashed
Toledo
vdots
##shaw
Welcome
Auckland
BU
pend
022
ordering
Traffic
RAN
Enh
##ECTION
##kong
##1A
provider
contemporaries
Dynam
R3
##lance
functioning
liberation
executives
Stutt
##actor
divis
##wal
##wid
##ochrom
denoted
##robium
Gentle
##iales
##assi
##ebo
Goes
Railways
XVI
Harmony
canceled
deficit
Walton
Bowie
walked
Eternal
Focus
cfrac
##ograf
##tershire
Berks
##loid
Door
mistake
##kok
##arina
inadequ
1170
clerk
republ
Simmons
assuming
spokes
##park
##jn
handful
Inspector
lun
rou
complications
Ada
balanced
Nippon
Stack
Seal
STD
reasoning
Raphael
Mazz
Rare
bab
motto
##ulg
Commune
##afa
Images
Faust
Baz
Gew
leth
rav
amend
Allison
prominently
Hodg
LI
##cup
##Ra
1070
ACM
magical
undertook
frog
excluding
lady
Thi
##orsalis
##anya
##yna
##happy
##akis
##qual
murders
Taiwanese
Tabanus
posthumously
NX
pressures
AES
Sind
hect
Chong
Cliff
##leyball
Starr
persecution
##icillium
deton
Norwich
rendering
Mog
##yll
parishes
Frequ
Ain
eman
Structure
Soci
1330
##sville
##imid
##asht
treatments
Variety
peasants
1225
##oding
microst
Digi
angry
Unf
Excel
glab
multipl
##agoniates
vocabulary
breathing
Crane
##wart
##vre
extensions
socialism
kilometres
090
Sounds
SmackDown
##AX
dei
adoles
Rockef
standardized
Sixth
eBay
Zur
##fu
##anza
##stage
discussing
NOW
tooth
Stones
PDP
HDMI
Pilot
Hannah
republican
SET
Thirty
##toni
Imper
Treasure
RSA
rud
##ogie
innings
accidentally
butterflies
hometown
sear
##zin
##aculata
commuter
Agu
Italia
email
ABCD
sulfur
014
microc
##ogeneous
Kepler
Nish
##ORN
antenna
bike
##Fi
petr
Mongolia
imagery
ANIMATION
Ying
055
confluence
Flint
hamlet
Huntington
filling
reproduction
ecclesiastical
##nie
##Hub
1698
Magdal
##ortunately
update
##alc
helicopters
alarm
##hora
Arcade
Philharmonic
dwell
greet
1227
Duo
BMG
mountainous
Teng
Vale
##ovia
regained
APEC
Putnam
Advisory
Ses
SEX
inert
##ajo
##retion
subjected
Jacqu
alignment
Wireless
suscept
Sg
Za
Warfare
authored
##comed
Brandenburg
mouse
##icha
##ionalis
differently
Angelo
##ustain
##ONICO
Lima
Ecsenius
Reichs
harbor
bureauc
BDS
1213
infections
##onnell
searching
##estead
##ibo
##uxe
encoding
manor
##ebra
##ijn
Danube
senators
GUNDAM
Stadt
lever
Antony
Achievement
mc
spatial
Reilly
Worldwide
##hoff
decreases
##rified
END
Kow
834
Salix
floors
Aspid
McCartney
Amanda
textile
Yankees
Varg
##arra
##awan
Scut
conferences
Livingston
Were
##eens
athe
Anast
Bla
Flex
ik
##ystem
##acul
##akk
##iland
legends
productive
Cunningham
weakened
Scale
8500
runner
farmer
Horizon
##121
Charac
Burm
ESA
celebrity
##ienne
##zier
1126
enforce
endemic
024
seeks
##ridium
D4
lined
Myers
wrestling
Vari
Ston
spark
##obium
verses
CONC
##enet
Laos
##ECH
##urban
temperate
curves
disciplines
EG
Outer
##liner
##idio
1850s
Zeit
NICONICO
Lok
flor
radi
battlefield
Rahman
##rically
##link
##zew
##CS
##EAK
preliminary
Laurence
alcoh
ellipt
##eem
Tudor
Yemen
Appalach
Hask
underwater
Iro
Mitch
paternal
Stick
##print
desp
peaks
Shepherd
Niagara
princes
##orah
##entin
incent
reflex
pulse
besieg
percussion
Cn
Rp
Squalidus
LPS
cros
##enden
crest
STATION
instructed
GBA
ceded
##ereus
Carey
Pteryg
fibers
##ifolius
Sina
drown
1014
1135
APS
Flem
symmetric
Date
Strip
desper
INF
robot
Lisbon
M7
##istes
amended
hoping
displacement
PEN
billed
##iped
monopoly
academy
tissues
Harp
accommodation
dive
##enium
##ceil
constraints
organizing
##IRO
Dors
Daz
Io
Lill
X2
##fur
##ropsis
Gus
Lai
##ulton
Carmen
Sarcocheilichthys
##raced
##usions
1472
##hyb
freeway
listening
DOHC
Dwight
Polytechn
Mec
manages
019
glucose
##cs
##istius
Kuro
aesthetic
CY
Cogn
polyg
debris
welcomed
##asted
Outlook
Satan
hydraul
Rockefeller
Facts
dome
##lace
presidents
C9
Tus
##waffe
villain
settler
Carnival
##thalm
Gephyroch
monkey
##agogue
##ellata
Zimbabwe
Hands
exceeded
Content
BABY
echo
Styl
##eart
##ailable
##anson
Pseudo
Luigi
Klaus
Hubb
REV
##ricks
Mord
##station
spy
##plan
retriev
stronghold
##OTO
botan
Identity
keen
##verted
Finals
Dogs
romance
##anu
1495
referenced
Huss
bif
##FI
Lionel
remnants
Bian
Gert
##Time
toy
##urensis
1211
Legends
Noc
dav
dried
plantation
lumin
ya
Lucius
derivatives
Housing
abbey
GAL
Kus
##ampus
Butterfly
##stedt
VVVF
Byrne
Omar
hain
deities
##ubern
Williamson
girlfriend
##dad
consec
Polk
Going
Warriors
Chronicles
Hr
appl
Louisville
favoured
##ithecia
##erion
##iste
##ovina
modules
cameo
Midland
837
Boom
dispat
Dickinson
squadrons
correlation
Algeria
Vega
Prayer
Shadows
Conus
rejection
adaptations
##HR
##ersi
McI
corrupt
Ethn
hes
verbs
neutron
mathematician
gri
##omatic
Shang
##arbon
Garrett
Lycodes
coloured
Raiamas
Fellowship
Comet
surprising
2R
5E
J1
Wies
1390
Thought
0001
047
vitamin
pad
Revival
##cker
elimination
gravitational
##comm
##adar
GCC
##rade
Abel
Monmouth
##elii
##ariensis
sworn
sexually
Daum
Heinz
XD
settling
Royce
Antarctica
1015
##arton
genuine
grouped
Genius
marker
analyz
Evangelical
Iw
ou
##oton
1214
Custom
Lance
Rach
syllable
Stuttgart
Shak
regards
056
Formosa
reciproc
BAN
E7
theolog
Aragon
Lombard
##asu
wholly
##flower
Amber
slogan
derive
debated
H7N9
##rank
Gloss
Morse
investments
Cymb
Midlands
Kunt
MAS
Nitzsch
1518
String
invitation
##aldi
Lpez
##omans
##elda
Flick
Tetragon
##omit
##agin
Problem
socially
launching
throwing
kan
suppressed
shaft
gameplay
G5
Zar
halt
tern
themed
##shi
coastline
Esper
Kumar
Bohemia
##asting
##204
##ulla
##ographies
PowerPC
Discogobio
Provincial
078
Tuc
rpm
##MAN
##oub
compare
Ecuador
6A
Chau
Chteau
exiled
ART
eighteens
predecessors
tonnes
Gare
Trial
cancell
retreated
processed
Maggie
Approximately
TED
Interface
debates
SSL
##ogenes
gradual
sanction
GANG
##riz
##iei
##rosp
suspic
##amphus
roman
rented
##fest
##enk
##raid
Grun
fulfill
tough
##fb
Brett
harmonic
Rolf
ai
##ineau
counting
continuation
Landmark
fortifications
emotions
catalogue
obsolete
clusters
3400
patch
Tsar
guaranteed
Ion
Nights
2027
armoured
holidays
##ULL
locked
##iphe
Hartford
sustainable
Eupithecia
Twilight
Fw
Punch
rab
conject
Penny
laying
Sioux
demonstrations
dairy
##TY
##chb
ACC
documentation
##ontinental
YOSHIKI
Hors
##oge
Alien
recall
##ermes
currents
exhibitions
simplified
##TCH
Noel
Intro
##chez
Osp
##701
phrases
bicolor
##adh
pride
trunk
capit
Worlds
speaks
Romeo
clouds
M25
##tv
##egal
##prised
emerge
Rubber
precursor
kal
##herty
Monsters
occupies
Historian
numerical
KH
##amel
capitalism
Goodbye
1485
Origins
renovated
License
Gros
U20
riv
##EB
Metall
globe
Versailles
Haj
Kern
Said
1018
Afro
necessity
controller
Abdullah
Eagles
Famous
Kis
Rough
bout
##aedia
##JECT
servers
Salon
##frame
simpler
fights
McCain
Travis
Neder
dich
pamph
033
##jord
Plut
lineage
Title
##enser
portable
convince
puts
colonel
##onnie
FG
Tb
##icana
forever
Unknown
Alain
unconscious
generator
Loop
IRC
COMP
adventures
triggered
WOWOW
##COM
##otz
proud
metro
Creation
bowl
Dynamics
lu
vapor
implied
##oxide
INN
reformed
Disease
Konst
##Mbps
018
##umba
promising
##enberger
Scorp
circa
1404
Innovation
##akan
Fantastic
Visa
IRA
freshwater
PTT
NW
wards
Seas
Byron
portraits
##phaenoides
Strategy
cartridge
Suffolk
Marks
Dino
Kah
Prent
unders
salmon
chiefly
Kyoto
Razowski
overthrow
##ride
1030
rowspan
Pedicularis
##iops
Flu
skept
avoiding
Cris
plac
LAN
Chromis
transcription
similarity
Pyren
tolerance
Crescent
Manif
Perhaps
websites
Aman
implications
##yck
##intendent
spectral
Bacon
##Arthur
Wendy
GX
Hague
UFC
Ware
##ellidae
agenda
Hypena
dominate
Napoleonic
Spirits
laugh
Centro
convoy
potassium
exceptional
filament
Nitzschia
CNBC
Persia
Watts
japonicus
RV
tunnels
Fortran
beside
unrelated
maneuver
Cum
##otechn
granting
BAR
hurt
kids
warn
meanings
Sabb
GTO
vinyl
##150
##neath
G6
Basel
modeled
Jug
dz
##bis
atop
##awak
Engl
Birthday
POWER
Echin
PASS
maker
Shopping
Parall
Lycenchelys
##uincy
aren
damages
Wilde
cubic
petroleum
COS
DARK
Matthews
admired
Eryth
Himal
Yong
glauc
##acentrus
bh
##uire
contexts
Mud
Pueb
##H3
Guerr
troop
locks
##rust
##BLE
invert
Internal
outlaw
identifies
Rubin
Bamb
Tart
pled
Reality
##480
USAF
##ledon
pathway
Hayata
institutionalized
Fusion
Sover
bub
fusc
lor
Joachim
1402
Siem
interrupted
simulation
collector
Hiros
calculations
Jennings
994
Blackwell
Lester
staying
Theodor
Ramb
arsen
remarks
Tier
suite
IPO
iM
##amura
Regent
auxiliary
Nah
poin
Sto
1425
Hara
Known
Aztec
Xros
transaction
##roads
enzymes
Saur
Tort
va
##owing
Guer
Comprehensive
engaging
memoir
HY
##rar
##bee
##ROR
##onger
smith
Francisc
Randall
Lantis
Soy
1240
Flood
microb
Alexandre
accusations
Pinn
pension
fluctu
comprise
Neumann
stripped
##fficients
uncertainty
eMule
IW
Jensen
Tampa
Trigon
digest
reopened
Neck
zinc
##otilapia
063
Poems
resembles
UMTS
ub
unchang
ACP
decreasing
Wonderful
anticipated
Pull
##los
##eburg
Oxy
Buchanan
##obranchus
Molecular
rip
##ffin
##issement
##opteryx
faithful
Schuster
Patrol
1551
Mechanics
##kor
upset
##axis
advocates
Traditionally
Pors
Leiden
##122
airing
Protestants
constituent
renovation
Numbers
##rack
##uras
ech
##unted
##aiensis
SPD
astronomical
##folio
mp
forum
3100
##shan
Believe
##eniatus
Supporting
##loc
##sha
Ruther
Erysiphe
gob
##yta
##earing
##ermo
Clive
Chevrol
ung
##olation
1320
##oldt
Takah
KGB
hi
breakthrough
conception
dawn
storms
Kag
Geschichte
Voc
##aso
##weed
ranged
strengthened
unstable
Maus
arct
Reeve
oppose
literacy
Chern
##ogi
Slam
likelihood
##iseries
binom
##VI
Clair
##yche
##intage
Restaur
1270
##rotic
sculptures
Rath
##andez
Meta
folklore
irrigation
gy
ji
##heit
##uala
Shift
Eli
Mercer
expressing
galaxy
Luftwaffe
SIL
rope
pedestrian
Fans
fears
##itorium
Alchemilla
Bam
chambers
metre
refusal
breeds
Cyt
Fo
Straw
encounters
plantations
Hitchcock
Dop
Gauss
Pug
##enic
visitor
confisc
broadly
essence
sag
stems
barely
##AI
##anol
Boer
radioactive
SEL
lag
characterised
substitute
##dn
develops
Polo
canton
anonymous
meth
##135
Temper
Hirsch
mysterious
Yin
##uchs
omn
Essential
1140
seiz
Syrac
equity
ATENU
Saunders
comparing
##601
JTB
##rico
##brahim
GENERATION
Colleges
lifelong
##oult
Renault
initiatives
Toll
##asta
##ieder
differing
Aerospace
3B
Kop
ZZ
nat
Chla
Bluff
fossils
advisor
Giles
Okin
XR
dug
duck
##126
##omorphism
##istani
varieg
platted
fellows
terminals
Manitoba
retains
Oblast
suffrage
Solutions
Nordic
Vaughan
Pilsbry
EE
Geological
MeSH
magist
Saab
mandate
pitcher
C0
Hb
##aille
Swim
altar
Investigation
HN
surprised
fails
1497
vulgar
##opotamus
##enu
treating
licensing
Alpine
hen
##ups
Distant
failures
privat
Sidd
1120
prints
Panther
analogous
##issens
##etsu
antip
Midwest
rode
Chow
##ikawa
overhead
Southampton
Zheng
##FM
##ppm
Confederacy
warships
plateau
reperto
beef
endeav
elector
Rhiz
premises
sensitivity
ballet
hanging
##adensis
Guill
safely
Fiss
cache
Stanton
Comuna
Airborne
honours
1388
Crossocheilus
Harttia
ay
void
Territorial
diminished
Drop
Hog
Ned
1038
Histoire
Merry
instituted
inequality
bou
dynam
i7
##itian
healing
intake
Schoen
soils
racism
Baroque
Torah
Poc
##Mo
spur
clav
##iera
worlds
Hansen
Fit
unification
reliability
##iodiversity
infrared
Sunset
Hild
hij
##buch
##urp
##iotic
##UTION
Astronomical
reluctant
##ethyl
tidal
##lach
##SB
BLOOD
Cd
##ineatus
Mari
attested
##ellschaft
Address
Weston
discoveries
Loric
Xyl
##OMO
Khal
explorer
aquatic
EPR
streak
Spiritual
##opard
Naver
rescued
Baptiste
coefficients
practitioners
##eterm
sperm
averaged
Polygon
respiratory
Maver
pilgrim
Lonely
permits
Varia
bats
##yar
##iones
##stica
##ishna
append
enables
##aii
depiction
Gazetteer
Apl
Jaguar
sends
tragedy
decommission
adverse
MOMO
odds
turret
1333
donations
Nichol
Burning
Gaut
LZ
mourn
##vy
##usement
##opharynx
Sower
kr
##amis
##quist
Weaver
Brick
Yok
Zam
##estine
##issimus
Polar
supernatural
Banco
aure
tRNA
##icultural
##lei
##emar
##onson
1483
bark
naked
##S2
##elrod
Arbor
Abst
firearms
merge
Kung
Maf
OE
alk
Charge
motors
Keynes
honors
Companies
Leadership
Dewey
Koe
Vine
##inator
securing
template
Cull
gor
pivot
S5
Samb
realism
021
certification
virgin
1464
woods
throat
Nissan
Lights
##osia
1439
influx
Autumn
Mandarin
satisfy
grossing
fuselage
##lidean
Rn
shark
afterward
drained
associates
SDK
ratified
Ethe
folded
iconic
antiquity
Gag
Rend
ville
plag
abrupt
apple
Gibbs
##chem
1138
Pietro
5m
Ophi
##pop
##mie
##ellular
healthcare
SHA
optimal
Everett
Founded
Dresden
Sit
nests
spor
beneficial
OPEC
recommendation
tense
##hole
inability
Invent
hammer
mascul
myself
Nero
hiding
sealed
##aires
##leyi
courage
originating
Meng
Turing
##inii
JoJo
knee
classroom
macroph
Bugs
Fuck
Loll
Nurs
curs
oplus
##ogues
knife
semin
fragment
V1
Volv
##osch
1403
Athlon
Stirling
##ologne
Symbol
poetic
SUV
neighbors
SDS
##ignon
Athletics
transmitter
financially
Vital
bent
surpassed
Dac
HI
Rear
Monaster
Scandinavian
Iroqu
Whip
##isans
enterprises
bever
Edith
Westwood
possessions
Oswald
premium
sexuality
suprem
Bourbon
innovations
Deng
##eneg
##505
##ylis
viable
##HTML
combustion
K11
Wimb
pu
popularized
FRS
Hunting
rer
##rath
##lau
036
corridor
Doom
KOF
crystals
Growth
Spiel
statewide
employing
tributaries
Thalass
ENT
kam
stern
##b2
##Point
Assess
Madagasc
taxation
wisdom
##inka
occident
journalism
##uarterly
Kazakhstan
Guatemala
dump
Hare
SAR
parap
Articles
Console
ORIG
narrowly
Manson
leased
Admiralty
Fabricius
Dome
Oc
genius
1860s
Trinidad
acceleration
Elite
Haiti
Dut
Gaza
Tiff
##ortal
placement
Phon
addressing
Wheel
Saul
##iban
##obin
Rocks
##lynn
##bia
##olit
##oura
seating
Clean
Volkswagen
Cream
Lom
niger
wors
Theme
Edmond
035
Benny
Cen
##sub
##eneration
##uno
probe
defunct
Malaysian
Fulton
shar
profitable
Effect
##width
1471
GANGAN
##haven
##fit
regulate
Eurasian
sometime
superst
Odyssey
##strom
chore
##ilege
angular
Concerto
tallest
Suther
Anomala
##N2
##110
##iek
crack
damaging
Squad
snake
Aleks
Eugen
Likewise
GK
##anmar
detective
##ariae
##ascus
posed
christ
##ahon
PRC
narrator
liner
1129
##ogast
Built
Understanding
Extended
Pemb
##osta
Mohammad
Twitch
Daucus
punish
Gibral
aggression
Lopez
##Box
##JB
##arine
couldn
##iciary
Azerbaijan
##rodon
RDNS
Euclidean
Rodriguez
Layer
Manch
##ANN
cheaper
fairy
terminology
##eaux
1328
bush
alternating
Wait
reunion
EMD
IETF
fore
Assass
reprinted
##IGO
Leib
Root
Deuter
combines
qualifying
extracted
##uably
Interest
structured
Diary
complexes
Casa
Brittany
Wins
db
##hara
alike
##innings
Groups
Greenland
Senators
likewise
1382
Hoffman
authentic
Eaton
nod
##isto
##ighton
monk
Reeves
Draft
##inely
##atul
Aston
##768
harder
ANG
turbine
Wise
spanning
##ibarb
reside
Brill
##ographed
Seneca
resisted
##arrass
Bolog
Daim
Chak
speculated
1093
Copper
##uestion
Neptune
leisure
Republ
##ographically
productivity
Senna
##acey
##ittor
Archibald
1394
Ricardo
SMS
vass
wax
accidents
Para
Acest
Below
Nicole
encompasses
##lang
##iong
Broken
verbal
Riemann
Cretaceous
offshore
##BAD
044
037
advers
sympathetic
Administrative
##rana
Terra
ASD
Jakob
MERS
RISC
puls
##inent
underway
Juliet
bottle
Bolt
Watt
##nance
50000
carp
adjoin
prolific
OEC
orch
trich
Forrest
Tril
Allmusic
careful
denote
automated
Estonia
Eust
RMS
##tat
##SO
##ureate
underm
Blanc
032
illumin
Benton
Fever
tide
##wei
uparrow
##FLOPS
Fuji
Lorraine
thickness
Dionys
Veterans
Kov
solving
tig
shoes
lineatus
protocols
Trio
Telecom
Dirty
2035
1210
Casino
##yards
brun
guitars
specifications
orchestral
1D
Kappa
##thren
Marathon
##axies
extraction
Polyn
photographer
lyric
Kemp
Dex
##oos
##rities
Slovak
Andersson
mosaic
Guinn
Brooke
Canadians
unpre
neurons
baptism
Kro
##iC
##esque
##aret
delays
promotional
Brev
keeps
Helsinki
##iken
denounced
##inctus
creature
besides
mobility
GitHub
Stella
2028
Hawkins
conceptual
Privy
repertoire
Lia
bamb
Unified
ale
dining
##adays
slide
Talbot
struggles
Mansfield
Sai
aging
Latter
memoirs
colleague
Chor
##ppers
overd
Acid
Domain
Raff
upr
##ewa
##ICK
Milk
Skull
determines
syntax
Nost
Oro
##alot
##cedented
##zek
Liparis
SAP
023
Distinguished
Workshop
Rolls
pacific
approximation
LOW
pum
##anea
Donovan
Ridl
knocked
oxidation
Smy
##idum
Always
Blitz
Pry
upl
##ebook
##onymus
Reports
Luck
MJ
##etal
Arb
recyc
sheets
Postal
commissioners
thriller
Jedi
##RP
theft
3700
twins
Castile
apparatus
fertility
subdivided
Xeon
Sylvia
Happiness
reinforcements
Malac
Coryphaenoides
shifting
DVB
Hesper
Sowerby
##abis
Sting
Enlightenment
1424
Bernstein
Extension
consonants
Reverend
CBD
Bonnie
ROC
cone
recl
monster
Beno
lowered
ensuring
Whitaker
Innocent
Ved
##olive
dislik
occurrence
085
##islav
progressed
PLUS
Fourier
gubern
Parc
concludes
positioned
Message
Ridg
##raint
Agn
occupying
Encyclopdia
Hydro
nigric
Escape
Kunst
##iflorum
Pareiorhaphis
Moy
Seth
tender
shuttle
branded
##BANG
patents
Penicillium
Paradox
Theres
Triangle
Relief
assassinated
Madagascar
Bret
##lake
##osem
Seminary
Curry
doctr
firmly
larvae
bibli
Sure
##words
##etor
NH4
preparations
Dru
Loss
LOG
tech
enforced
Scream
laev
Donna
Jeanne
Archaeological
Documentary
BMI
MIM
beds
pyr
##sl
##ilder
Cola
strat
045
042
Butterflies
gambling
cob
##geois
une
insight
1407
##enthal
Ehrenberg
Copp
Dict
##onkey
Crash
sink
##utory
1445
Sutherland
NB
latt
google
Melon
Macedonian
Ely
Ith
regent
##unga
refurb
##integ
Myanmar
Garland
Areas
commentators
canonical
bail
fitness
##erne
##raper
Concept
MathWorld
Schwartz
##olabrus
Jubilee
unprecedented
##ulance
##acha
Pho
twelfth
inherent
M48
Rover
nur
1433
ancestral
Excellence
stressed
##ianism
1392
Cerop
Chrysler
asper
##aceutical
Gin
RH
1219
034
Georgetown
Please
Factor
Rchb
##appers
Experimental
NASCAR
Bismarck
##DD
Parts
##yrh
sampling
keyboards
DotA
hollow
vom
##odo
NHS
Woodward
innocent
Pell
Wander
generalized
##ihu
Overall
HTML5
flourished
##MENT
1122
accession
Hahn
Dug
Pec
hort
##Is
##phal
Levy
recurs
encyclop
semif
Rhythm
##top
Assault
macrop
DAY
mortg
tam
Calder
##venth
ineff
arrow
afric
Citizen
Dumb
joke
1013
1413
Ships
attained
remake
Value
##class
PDA
attracting
segregation
##yzon
cavity
sir
##rass
##kas
##tland
indica
##202
##yched
##lid
##WB
##lyss
coher
97895
Cardiff
exercised
##NET
Ceropegia
Vogue
##igrap
OpenS
aspir
anthology
Siberia
Previously
Robbins
Nad
Nina
##dot
##IAC
##icho
offset
Prosp
Hohen
TAI
##zburg
eccentric
abnormal
Dangerous
Kass
##lections
silence
Podcast
NAM
##aer
##nn
##orac
##urable
Adj
SCP
ordained
Araneus
Fung
caves
pushing
wagon
##wat
##ulina
SNK
Soldier
Syracuse
BAFTA
drops
##iastic
##ilot
##ceps
##achute
ACL
decorative
metallic
prolonged
BAT
Rug
##City
##apest
Thnh
Shire
##ertiary
Ferm
hate
nec
Beaum
##afi
lacks
Townsend
specimen
compulsory
Bax
economies
Consult
##omotive
cooked
Bibliography
overhaul
FTP
Lump
1442
Garfield
Breton
Kiev
Sank
##La
whit
Zhong
Lindsay
##ogenesis
behaviors
Unt
xrightarrow
##isth
plague
prehistoric
interrog
##ashire
surplus
Swin
congregations
Tz
duke
##esium
1160
Stephens
Info
Tribe
##atica
finale
Kauf
metaphor
YU
##305
Ella
multiplication
LAST
1406
Consumer
Olivia
Etheostoma
lau
Chill
##atorium
Browne
Darth
Invasion
2ch
pert
button
campaigned
weld
##wave
##zhen
##elas
Hallow
emigrated
Coul
Cycle
ETS
BIGBANG
SIMBAD
Ninet
##green
##alysis
##entral
Maril
Phal
Lancashire
perfectly
Stratford
##bolt
spare
4800
1F
Bis
gaming
##imov
financed
Arachn
mothers
CAM
demographic
affiliation
Payne
bare
##iosa
##hus
##heri
4400
FH
##hua
##bf
##TT
transactions
phones
Beer
terminated
Nexus
Witness
cis
Laurel
feas
Courts
##ytical
##iyah
Rw
Rally
statute
Silicon
armored
chiefs
Automatic
Gomph
##iency
##134
successors
matched
bulb
dismant
YMC
1115
##anthe
093
privacy
subtle
##UKI
Lyth
Maud
Willow
1409
Torres
Jacksonville
galleries
pioneered
Budapest
granite
Critic
crist
emin
##inen
1101
merid
LIMITED
E22
##mia
##ayn
submit
Tess
##roves
curved
##elot
Engineer
battleship
2k
CIT
croc
##tsky
Schu
1451
Rodgers
drinks
Prentice
Marse
Newsp
##enches
##177
Resident
Solaris
##anoi
Provision
kitchen
rhod
##FE
##atos
##agawa
airfield
discovers
deposed
Kosovo
##ocichla
Evelyn
STER
administrator
reinst
farther
Gibraltar
Norris
BASARA
barriers
Crew
Ix
##atula
Algebra
quotes
Panasonic
ceiling
chaos
Mab
desirable
Appeal
captivity
1185
TWICE
fel
##olata
DRAM
##keeping
Assyrian
Goldberg
castles
1356
calculation
Bermuda
Cyg
fol
attribute
sharply
AOL
IGBT
Rash
##bing
Lioprop
swift
costumes
Irv
revealing
M1A1
Sailor
Liopropoma
Hib
Tail
fond
##egen
##obiles
breach
affection
Bonif
battleships
evacuated
Edmont
Salmon
debts
conquer
steering
arcade
Ficus
Rotten
Gemini
obligations
jewel
Rings
##rud
elephant
refined
Milne
entertain
freezing
1189
concentrate
##ovenant
Rabbi
Eighth
fingers
1488
Steiner
##endale
aph
inception
##ersch
partisan
Plants
flux
Adler
Partn
Murd
redesign
2O
Pect
##rush
##arya
80km
026
embassy
exported
sauce
Ust
Arth
knot
imports
judged
ECFA
feminine
Pia
##CG
resur
##chev
ARP
fierce
Yuri
##jing
Prod
Scientists
pioneering
rim
##rology
submer
Pluto
##401
Flow
Avengers
##akening
suspect
teenage
inadequate
cope
smugg
##uddy
famously
Holding
expeditions
##gary
busiest
Rogue
Camera
Mighty
Cm
Volta
Processing
Caval
friction
##486
Massacre
reconstructed
frozen
rush
##inho
Thess
1277
1266
Teh
burden
Tanz
alcoholic
Rutherford
Koz
drought
dagger
Sek
038
variously
merchand
Zeppelin
Loricari
ecl
germ
Scler
crater
##igeon
reproductive
##iatic
##erat
##anov
1290
comparative
Depending
##icher
appeals
consul
##INS
Jewel
physicians
flavor
highlighted
Vickers
Catch
nouns
##iov
##ockets
Stras
homeland
##eddy
sleeping
dictators
otimes
Ibrahim
##Rank
##chia
068
midnight
Timber
fasciatus
coronation
GIRLS
G7
##adder
##antics
Prism
Guinness
##jou
##atism
shi
Carmel
Camellia
reservation
flooded
Fool
##ben
uniqu
cruel
Hilton
Typhl
GIF
Pd
MacArthur
##ekt
Jesuit
Volunteer
Bai
pont
##will
##coni
Neither
empirical
propulsion
justified
survives
homosexuality
Dill
##olley
1375
Appro
Dominion
##osphaeria
Kut
Brachy
Peel
Younger
Clinical
Natur
Junk
MLS
##ummer
Results
Lesser
RG
##osma
##izi
definite
warrior
Gim
feels
Frame
westward
Phyl
prestige
unmarried
CITY
##NI
isn
1399
Yankee
Bold
dow
shrine
decimal
Usually
Kahn
prohibition
##sz
##amination
Sturis
impacts
retiring
births
obscure
Dz
Sphaer
##itious
##ayy
Marvin
unchanged
serm
interd
064
094
utter
Gao
Jain
##UTC
##SM
incorporates
##jeune
Neville
aka
activation
NERV
Whitt
denotes
surveys
Catalan
relativity
##ellaria
Brab
MeV
kindergarten
IH
Menn
##smith
##igmat
Corinth
Dunk
sinking
25K
Guilla
daytime
Philips
##orphy
defenders
comfortable
SEDS
Wight
##etum
##rowave
Exeter
infect
Wester
orthodox
dreams
##oglossus
Pimelod
OAD
Panc
SNS
Tad
##making
lightning
Ruf
mold
Porsche
##croft
##TB
Telescope
Burst
polls
calculate
Diakon
Hubbard
MBE
Punk
Rau
nyc
2900
##oxy
dividing
Hinduism
Cocker
accelerated
Emanuel
riders
Phall
verd
Gerhard
##stanbul
SX
##tica
unin
##azy
##780
functionality
Kashmir
Dok
Feng
HU
##idine
1444
Triumph
Encyclopaedia
summoned
Partnership
shores
##oxus
financing
Raiders
Aux
##emer
monasteries
screens
Harriet
NZ
XC
cables
##gard
sketches
##ADA
Carlton
doubles
TU
##ilinus
##overy
reminisc
Amos
HERO
KU
lia
tones
##tre
##hom
##inosus
seals
unitary
##inalis
049
calculus
hunter
Loyal
Sale
Wink
downstream
Lecan
answers
OECD
Jap
youtube
##oprano
##sonii
FIL
Samp
tilde
065
puppet
og
##odynamics
Palazzo
rankings
1482
physicist
expans
refusing
Serranus
1900s
cleaning
Aquar
##odiscus
computational
brevis
##ecessary
Molly
EI
Kip
Separ
##Bl
portal
##matory
rockets
##anchax
##issenschaft
Pana
Sustain
latic
##otive
plots
Anis
075
emblem
crowds
Stro
##inals
Problems
sacrific
Dram
ix
##eleton
1278
##riel
Bangkok
councillors
Cfa
SOC
Auguste
HTT
Chaudhri
rust
##yen
##127
Tetragonopterus
Sass
##page
028
Monk
##coe
##notes
ideological
Platinum
cortex
Cologne
bust
carriage
1021
##yla
catast
embarrass
stretching
Bain
Eco
Hanna
Leth
Mug
individ
violations
patronage
Germain
Perman
##etia
##uret
deciding
prevents
CFM
Wimbledon
tak
coaches
Elena
##shops
ITF
Hoy
toil
##odied
Neolithic
batting
Ricky
rhetoric
Diakonoff
um
##rips
relies
Boone
Lamarck
##250
##acity
Polyp
Bayer
##Cloud
Nickel
Camil
panc
approximate
Dante
gospel
wounds
Slovakia
Naj
##ilated
##ocyst
Marquis
subgen
numbering
Sele
Promotion
dar
styled
##dard
1137
##romy
Genie
Austro
Prevention
preserving
apartments
1477
##207
Africans
Selected
Sinatra
patriarch
##terygius
9M
BMP
Noth
##izu
recon
##araoh
##auda
Dalton
falc
overlap
tensor
Hust
1025
overnight
Wilkinson
Talmud
sympath
Dendrobium
Kuz
Taking
1075
##church
##anguard
BOYS
ZX
##nard
##On
##inidae
Goldman
##1a1a
relieved
M9
Rale
MySpace
lesbian
Sadd
1224
029
Canth
##yrs
pursuing
##ipennis
Chance
1428
Campyl
Towards
Vogel
Ml
##vana
##asures
additions
Breuning
floods
Honorary
Oaks
##etric
##eye
##urnal
##158
Magnum
Lorenz
diplomat
Cork
cav
##kk
Carass
Across
Milky
sensor
Tina
##illac
motivation
Mackenzie
##hot
1123
landings
telecommunications
Prokaryotic
browser
Stam
##exual
##tenberg
Monaco
Myx
1C
Cuc
Oj
wag
Bres
rectangular
DHC
Myl
tib
outlet
Amateur
Deliver
##AFF
Lowe
devastated
Baghdad
Uruguay
##wara
stiff
agrees
Incre
BOY
##IKO
Maximilian
##comb
flies
chartered
Cobitis
chloride
##awat
DeL
torpedoes
Scopula
subordinate
verm
Thin
Beech
##iele
spiral
overturn
Rhein
Session
banner
hire
##ipa
brake
##175
Roses
Leopard
Berkshire
hydraulic
Fib
Guth
##su
bras
demise
opted
LPSN
Flemish
2s
Gaines
##Score
##176
Description
humanitarian
heirs
trustees
Hazel
Bears
Hatt
Vest
##enta
##orea
##hedra
twinned
Countries
intermedius
intentions
scab
Lea
##rophic
Rica
##oway
##ypse
Clare
##orthy
##ounge
possibilities
##loe
Bung
##GT
##ceptions
Crossing
temporal
gubernatorial
dancers
##iator
##stones
Mining
##onshire
##psons
Presley
##DAY
##ieh
097
indication
IAU
pupil
Jong
KY
Vampire
##obacillus
idol
Morph
Nicaragua
1274
1360
spray
interred
Romney
##uartet
Fog
Kramer
Went
##opleura
Caled
Preserv
Disk
Cleop
Spectrum
LDS
Speg
asset
066
helmet
##club
trophy
viruses
poisoning
Cage
##lans
##orama
continually
nuclei
compiler
SMG
Expressway
exploitation
Reservoir
Bologna
5D
Stad
Exit
doctoral
##egger
##ERA
slip
Bayern
struggling
Bone
Mith
Mush
Yaz
##oler
##emaker
##ewood
plc
undergoing
##utting
Ulrich
FAIR
Tesla
Bauer
##bay
##mere
1004
monastic
USD
backup
Launch
##uffle
Motorola
##chool
excer
triang
costly
1421
exotic
##ondissement
Daisy
culturally
Kuwait
PROJECT
Toulouse
A9
lenses
##akin
ears
##inker
HSBC
Cinem
Gyp
Kost
obtus
weights
warming
Contest
1258
blocking
satisfied
garnered
GAR
Role
TMA
##Cat
Share
##ORDS
Cruc
experiencing
grammat
chromosome
Chlaenius
BK
Trit
fission
##function
##ryption
Middlesex
focal
##iculus
##ocon
##ikon
discourse
McE
1461
GRO
Hassan
Gmel
Hume
Jill
##phone
##undus
Jungle
TEMU
Bolivia
##ratory
Convent
40000
matrices
cardiac
##subway
B5
Fix
Ting
pyg
silicon
inspection
##aluation
mentor
melting
Vera
##seau
sparked
027
Registry
geological
Connection
##roscopy
allegiance
Nicholson
Teg
##ainted
Chatham
underneath
Mei
stretches
Woll
vib
Rodney
commissioner
##Link
##teri
GMT
unusually
Lour
Clan
##ILD
Fairy
Beats
Titus
##illary
##obo
avex
celebrities
gradient
somewhere
##idelity
PARK
Zak
omitted
oval
##bler
facial
NOAA
Babylonian
##human
byte
canals
072
organizational
ATA
dependence
Kuala
subl
Whig
Carp
Patent
acquiring
##Sc
Mugh
Marketing
indirectly
Mae
##oday
1448
##ellatus
##eper
Johnius
problematic
Embassy
NIST
incap
##erta
##opsy
constructing
bacterial
Wolver
spherical
Coca
IZ
RJ
fug
pas
##lio
##vey
entropy
issuing
CVT
Archaeology
climates
mosque
Ninja
prayers
##Berry
restruct
##iosus
Miq
Logo
walks
S8
Clover
Planc
##scape
limb
fluores
absolutely
Wai
pept
1118
suits
Allah
071
Sergei
Cirrhinus
americ
tiger
bandwidth
Countess
Kes
hiking
##VM
exagger
Microp
Lepor
Owens
Rightarrow
##ommunication
Lifetime
Chevrolet
Vacc
vault
1377
Atom
distress
nickel
Dmit
fake
##ogobius
McKin
Materials
Hector
gren
##qi
Meadow
ASTR
eliminating
Facility
philanthrop
Dota
Hid
Poss
PNG
##fts
##orc
##ecus
##lli
slaughter
modeling
##oscion
##skirts
Rapids
validity
Marriage
Burr
Ler
Tc
##storm
##space
telesc
Contribut
dramat
CR400BF
##onal
cereb
JJ
Rama
vein
##alle
##stitution
##thernet
objected
##oltia
Ultimately
surveyed
Ili
##NE
##hofer
Nearly
Collections
Voyager
Higgins
Gug
PER
##uliar
1216
Narc
Weapon
Push
PPS
Pump
Zu
pistol
##uiet
##ifiable
decoration
Residents
Ottomans
FSB
Hutchinson
Few
##dl
beans
1410
##ensch
buffer
##inny
longrightarrow
A10
Dich
1438
Malt
##IVERS
steindach
Peckoltia
entrepreneur
Pimelodella
1119
Blast
playwright
Fortress
examine
asteroid
Glyptothorax
HAPP
##NC
##Re
##osse
Chry
grains
convex
Browning
AEU
asymmet
Pact
##ontology
offense
morality
inscribed
HEV
alba
099
##ylepis
##rolepid
definitive
tuition
Gamer
##antz
##astrous
socio
Latvia
assumptions
paired
restriction
culminating
Eus
##sin
##amn
relate
meta
Ave
2307
LTD
steindachneri
jung
##bys
1476
ISA
Polyst
correction
Commissioners
##ablennius
Overseas
Coy
##innus
##written
Cyril
4s
S7
30th
numeral
Infinite
Coastal
Cannes
Isabel
Herzog
##uben
##206
magnific
##eteq
guerrilla
Hidden
Tears
WI
Welt
cf
prevention
locate
Calc
Prescott
Officers
Jude
congestion
##avior
##ipeg
Spani
refuses
realize
clearing
1800s
paperback
orbits
Trouble
sanctuary
Alco
miniseries
nycsubway
PLC
##tenham
mined
##ICT
voter
Treatment
##udi
chancellor
##307
Medici
burnt
cosmic
Liquid
Nih
Vector
mah
##ivor
1271
disastrous
discs
Byrd
##rawl
holders
Marcos
Bloody
owl
##ocarpa
##urate
##obus
regret
airborne
hormone
Perfume
Hulu
##gone
1441
##ogens
##iale
##INC
holdings
foreigners
homage
SOHO
athletics
Pritchard
GBS
##F3
1019
1378
refuse
researcher
AEON
persuade
peripheral
pneumonia
Iroquois
GAM
##ubishi
justification
Turnpike
planetary
RI
##orr
fork
##ayama
unic
Sheikh
1405
Labs
1840s
contacted
quarterback
Cheshire
OTT
SUMMER
##TM
outskirts
nesting
Punjab
Haskell
##chio
everywhere
boroughs
Hain
##sm
strang
##aston
seize
##ibacter
Clav
Revised
C60
##auri
Intermed
##asket
1385
Dubai
Virgil
mul
##ORPG
surgical
phosphate
Dioecesis
1155
Carlisle
cm3
Lancer
cooperative
Krieg
dancer
##ubert
##iewicz
Wyatt
mammal
principally
Burmese
5200
##ANET
critique
arguably
##FFF
pyramid
Vod
fool
centred
Conquest
instability
doctorate
NAR
##pes
AKS
Raleigh
##oum
##apl
##phants
grise
##oleuc
Measure
Archie
Beatrice
Methods
besieged
Cleopatra
##wear
##pid
##iplex
engr
taxi
sacked
##WD
Newt
Plag
colonization
1830s
fluor
Sok
##1025
graves
##ENCE
BV
Eph
Oral
xxx
forgotten
##asties
leap
translator
Ree
##fal
onward
assists
crushed
##iosc
##uddin
philosoph
##2003
darkness
Winnipeg
Mental
##ancies
Antig
sentiment
LPL
YOUNG
Tours
dans
##ibur
##rests
##forest
mitochond
Marquess
famine
Shine
Situ
##phe
##TLE
##jas
##week
073
Anatomy
Mama
Pou
U23
dang
coordination
Mayo
demon
Venetian
Bann
F6
eternal
##forth
##ivodes
##uling
##adeus
eighteenth
Harding
migrants
exempt
Settlement
Conflict
Kie
shorts
##olls
designing
glory
##vez
ARMS
Omn
Hansf
CNS
stir
##orno
Slim
1455
Kakao
##inoides
proposition
learns
olive
Fenn
FUN
1090
brachy
Simpsons
norms
RSS
signaling
criminals
transparent
##arac
Inters
##quir
suppression
popularly
Annals
halted
metaphys
N1
moor
uph
mono
Macdon
copied
Anh
Hanson
Wolfe
unwilling
Nr
saints
##achen
topological
sponsors
McLaren
tuning
1198
seated
outlined
WWII
Mosque
humidity
Jasper
ua
##endicular
##inney
059
##136
STAGE
Papilio
illegit
risen
Carthage
9K
##imoto
implicit
##flage
charitable
Monteneg
enslav
rebuilding
Files
Geb
Ou
Yao
dol
Calgary
communal
Mercy
adopting
1161
Published
streaming
CERN
Dah
UW
mice
##inic
stuck
retal
mutations
Damascus
Refuge
intermedia
troubles
culminated
Tant
disposal
rebell
darker
BWV
Mitsubishi
NYS
Org
nonetheless
SoC
destructive
victorious
printer
membran
welcome
devastating
Caucasus
##elman
upstream
behavioral
prescribed
moll
viv
accredited
Bridges
televised
RIM
##KE
##ecost
##stall
1241
##amped
crude
Ventura
COR
FU
NED
##Ki
##illaria
##oplect
Serial
Terrace
Selection
customary
resembling
crossover
cerv
Strang
regain
Harlem
##appropri
Electrical
exclusion
prospect
Uganda
diabetes
##ARP
031
Torre
armament
implementing
Titanic
sg
##FR
##igera
##opers
Harald
##ergic
neglig
Walking
float
Looking
Crusade
Galileo
pt
##hz
chocolate
militar
Karn
Bertrand
gracil
celestial
TJ
mush
anterior
##queh
pseudonym
Hesse
Ethernet
cure
##mberg
##ighed
stocks
Joo
subm
##ARY
Osborne
Shark
##208
Trident
deficiency
Taft
mutation
DISC
Towers
incoming
scroll
Mono
1205
investigating
##kreis
DMC
xen
workforce
Fantasia
discusses
Savannah
##writers
Conversely
wil
straw
##ikan
##ropod
practically
sync
Kuntze
detached
Virus
Odd
Piedmont
Hue
Lent
Yen
lem
defences
MacBook
##ealth
##arios
Kathleen
DU
##ska
##Card
stair
##herst
096
pioneers
bedroom
Coventry
Aurel
Vri
##nesty
##Tor
##itone
##40ZJ
Biological
Peerage
Mild
Send
ds
##adation
##liche
Label
owls
occidentalis
Edmonton
Lid
pose
ornam
chant
Territories
##unate
asserts
Aden
neural
merit
Phel
##strm
##urers
coaching
Burt
Enviro500
nutrients
Pfe
Enemy
1208
Gaulle
Pasha
XB
##opath
1436
Guz
Holstein
IBDB
Taen
celebrating
MMX
U18
fog
Influ
incidence
Micros
violated
tasked
Cynopotamus
Aphyocharax
B10
OZ
##dus
1060
##ensic
Scene
Elias
patented
##ocalypse
persistent
jumping
##rer
1295
Chag
remind
Cruise
skiing
Gephyrocharax
Dro
K8
##atro
##prom
wherein
ASIN
Homo
##onut
1049
##ISM
GNZ
Hua
observing
NCBI
syndicated
Nathaniel
##ded
1035
Arct
Forster
FIBA
aluminum
##otechnology
MHC
sv
attachment
emotion
tran
##pre
exploring
Chiefs
Brotherhood
censorship
dispatched
analyzed
AMS
Sis
dipl
##Live
protector
Vikings
unaware
Pauline
Summers
Doris
irrit
##neumon
Holloway
Rik
##BER
1027
1221
readings
Silk
entirety
Cyrus
Baba
Stephanie
cancellation
##onies
##odi
CD4
##uelle
##asciata
##iliensis
Hemiancistrus
Fairfax
Dress
Gry
Jade
##nar
##ayers
##ieR
Revenge
archipelago
##369
Interpret
Eure
LCC
##eneuve
helium
##oplan
KKBOX
Apt
Gett
Neph
##tung
##RY
##aram
Chatt
intu
deny
ESP
SUG
OVER
##irella
Caliph
guy
Decade
Blackburn
1259
mistress
Foods
announcing
wikipedia
##Pal
1223
##tef
Crass
habits
evaluated
answered
Lecture
Sper
##erian
##ieux
Score
presided
humorous
##author
embraced
Pulitzer
kir
peng
BlackBerry
alternatives
ppm
##zk
1218
reapp
##spe
##meister
Depot
supersed
cycling
Effects
##NO3
RES
Risk
wan
##mea
Lawson
Kish
ein
##F6
##obar
Divisions
Linden
Otocinclus
manifold
alert
crem
Calam
1484
Iguan
Alternatively
tremend
registers
shortage
probable
Monterey
Unfortunately
Kand
Nyl
parag
Pattern
Eisen
C8
Drey
bred
1443
fundra
contributor
Boc
##Be
1235
1147
##ocence
##205
averages
communism
pulp
confrontation
exchanged
resonance
Uzbek
Rech
Zomb
loot
poles
Canber
STEM
Constance
##note
##UCK
Libre
imagination
DEM
Diab
hood
##quito
Rivera
Revol
Kart
##ecurity
092
PCM
1465
Paolo
contributes
stretched
Provisional
imply
viral
Directors
##umbered
##aggio
excavations
Performing
Sovereign
disliked
Loricariichthys
Videos
lyn
1044
Guan
residences
dedication
pirates
Feyn
##allo
leak
invalid
Geography
Composite
Cowboys
Nog
##kle
1429
alloy
Shib
retro
Slave
princess
Klotz
Ia
K6
flesh
ves
##ulosus
Marilyn
rue
##inement
##achia
##ophor
refere
Coral
AVBW
Paula
ethnicity
M1911
Bev
Lemon
Mash
##hov
##AU
##MK
##hammer
Gambusia
Mohamed
1177
Marty
identities
1285
painters
sculptor
1110
Granada
caerule
MMORPG
individually
Feynman
aunt
cents
wires
##ichromis
Heil
##undo
Rudolph
Tiffany
5s
pond
1042
##ibi
serge
avant
urging
1264
vacation
Dollar
A12
barn
substrate
compliance
Pitch
##vic
Carb
demolition
superhero
Bolton
bees
desktop
##ugawa
flame
Guest
sensors
Kimber
Amphip
supervised
Verg
##atrix
##aridium
##leaf
formulated
##ispa
CTC
Tull
bog
##eson
##oces
shifts
histories
glut
Delphi
dams
Beaufort
wise
##estinal
Sima
ARIA
GABA
flexibility
Emin
##hay
inex
Stal
Bravo
098
##alties
1063
E8
Bulld
predominant
contradict
eruption
inexp
1479
blu
Christoph
##horst
satire
companions
Tusc
Chim
Shelby
B4
hiatus
##elier
Infer
Status
##ecta
Richter
Osh
toys
USC
Daniels
Wolfram
harmful
Willem
Rican
##nica
Inocybe
##ineus
##ublique
corp
Bye
Recogn
Slovenia
Ronnie
##lung
##Mi
##erus
##odactylus
##ephalus
confir
##262
Memoirs
CLUB
emphasize
Beaumont
Fug
Tosh
##rek
1217
##about
showc
satirical
Platypus
constitutes
converting
Istanbul
##obolus
professors
cooled
Burgundy
##ammatory
##ogne
##ietz
Angola
Consortium
implementations
Lyons
Cumm
G36
Pound
Tory
XT
1486
1162
dissatisf
Esomus
oversaw
##unctatus
motorcycle
K5
##atric
##sto
bee
Seine
Libri
deposited
cinem
pandemic
##jack
##isaurus
Prol
screw
medication
##lessly
evacuation
HTTPS
Haf
zoo
Parache
##802
##ochi
Lauren
##ostomias
conclusions
##talk
##owell
execute
artery
impose
PCB
Rodrg
Lover
basement
##umbria
1253
Darling
formulation
Refer
wanting
NTSB
Canberra
##unner
translates
applicable
Okinawa
##pers
##orfer
specify
Italians
COP
Idea
theatres
happiness
Assessment
##Torrent
Element
PFA
##agher
Corridor
trades
Governors
testified
Cicero
Marlborough
Rodrguez
pipes
texture
Patton
ADV
KAT
dental
##ebu
divides
angel
##ellen
##ertation
Franks
distributions
Jaw
##alsa
##ochyta
Haem
Estim
ensured
WiFi
rebuild
Hilbert
Pyg
##aty
Amherst
Juncus
Bernhard
Clarendon
Corporate
afor
##leted
##otated
1201
skating
Hemibarbus
scenario
Halloween
##houn
Clause
##145
urine
Sandra
Lindau
RAT
Wyn
##kHz
##chs
100km
portfolio
Reviews
Objective
DFT
Wis
Yourself
jets
render
##ionic
##ecko
calm
Sunrise
Md
Flo
descript
##151
046
##257
captive
Farmer
dissent
Bacillus
##quisition
broadcaster
advertisements
moisture
Lyndon
ZE
marm
##far
Clim
polyp
##insic
prophet
##iliated
commercials
Ericsson
Pakistani
intellectuals
elongata
Cats
Libraries
Mee
Sne
minus
dealer
prosperous
Jurassic
Hj
Lass
fare
##opholis
PVC
RECORDS
spontaneous
##Bi
##ianensis
##scher
Slavery
woodland
Opsaridium
##erick
Grad
##oplasm
taiwan
tuberculosis
lungs
##ioms
compressed
Morg
offerings
privilege
Hamlet
subscription
V3
Algor
scler
averaging
Regina
Enterprises
Bavarian
Hellenistic
G8
LGA
##uentin
##map
##quel
Judah
Maiden
Appalachian
1310
Weimar
diagonal
submerged
Collegiate
Semitic
Mesa
glacial
Favor
1346
##iscip
062
##alaen
ITIS
Immedi
administer
Behavior
decommissioned
##kaya
##anthem
##shad
Maximum
Electoral
Collier
##esterday
Eud
##ruz
glyc
anatomy
Gnt
JAS
edit
eponymous
separating
##yrgy
1351
travelers
gasoline
Zer
lunch
mong
##ADS
packet
##ogonal
TEAM
encoded
degradation
Furn
scan
modulation
##vester
Distrito
##GR
1099
Roots
Aval
Martine
Matilda
indicator
Hamm
##achev
packages
horizon
juice
Kensington
Mia
Zrich
jealous
rall
prejud
juvenile
Paz
##fig
1419
imped
Cooperation
Laub
Demand
Cheese
Hemisphere
collectors
Crete
subseteq
Fisch
##points
##eya
redund
deposit
MH370
McMahon
Ascochyta
Diesel
Krakw
##lysses
Crous
dun
garb
##ulia
##603
nonp
074
hardly
##TRAN
consultant
Femin
PID
awa
##opet
overview
conclude
stationary
Pentecost
##RIEND
COLL
PLA
wander
deut
Northampton
APM
treatise
GDI
Filipino
Target
Lecanora
Wisdom
##ietal
Isot
elastic
photographic
Thornton
tumor
Rpublique
OD
##rosa
Device
motiv
##keeper
NTSC
PARTY
lattice
Tere
##icacy
Northumberland
Freed
myths
prompting
BDSM
HAPPY
A0
Sip
transcript
Smok
triangular
##orneo
ecology
appointments
susceptible
Acon
Bok
Hath
hr
##Tech
##arty
Alley
##angan
promotes
delivering
VK
##istice
Estates
##acheilus
Susqueh
dietary
Ida
Jets
tapes
##may
##opis
1128
##tek
1153
premature
##guard
commentator
Laguna
POSIX
Ethiopian
Fah
10A
1037
Shep
coral
trailer
Moving
resemblance
convenience
Kean
##ecki
##ocar
Trains
racist
coordinated
Yus
bolt
##BD
##ucle
arises
##ISION
filters
Allegheny
Nod
Nico
##hound
1141
##ovy
Medium
1054
##oulos
Ramsey
Hindi
LN
##wy
1376
##ixus
Porto
MSG
exchanges
incompat
EK
RGM
hay
##layer
##Plus
Heather
directory
Latv
Loud
Gull
IMP
Tamb
##root
##andr
##illaris
##mental
peasant
constellation
Valencia
1389
Pavilion
DLL
Patriots
Natalie
contingent
##raged
##JO
forem
Ack
exploit
nurse
Cope
Gaga
##ichael
arth
Prest
defenses
Keys
Cardinals
sheriff
Mansion
cx
##eby
Hillary
barred
Mathew
duet
splitting
fauna
targeting
marching
Issues
succeeding
nursing
Immigration
Gnther
Same
##arde
1207
takeover
automotive
Conan
runners
Snchez
1282
formosana
telegraph
6B
CYP
Hark
##essive
invis
057
##idding
Models
collar
posterior
Symbian
ZK6
Jian
Sessions
eager
##vik
##endish
ital
Calendar
competitor
establishments
Philosophical
Tint
##fen
##ulous
1226
##ocyt
Mineral
Incident
sensory
nigrip
sponsorship
advocacy
enthusiasm
Phylogen
##gets
##lab
##PF
##801
Merit
tenor
Provence
JAX
expertise
##jiangensis
spokesman
6s
Ehr
nost
##ulatory
Thank
Anno
fitting
ls
##ln
##2012
##ussy
differed
strig
Neob
Claudius
hierarch
manipulation
redesigned
Mif
S6
##awk
presumed
generous
Humboldt
B8
##cd
##inians
1417
Units
TeX
Villiers
Certificate
hainanensis
Macdonald
Chit
commut
Harmon
Noise
resting
realised
skate
##iaspora
pastor
Takam
Associate
Sick
overc
Grav
ARE
treasure
1381
Akbar
rolled
Maw
Seat
footh
##uana
##ituary
Aside
genocide
##encil
addiction
Meiji
RSSS
##utenberg
eD
inacc
##umental
Strom
funk
Martnez
rocky
##zzo
pretty
Polytechnic
Vij
rack
##eren
##itating
Sparta
Above
97898
1452
ventric
##oran
1229
##essel
Cheung
Farn
Ethics
trivial
Fanny
Houghton
Zan
##iota
##alam
##ovsk
Flowers
Internationale
Micha
Observer
Turkic
PCIe
Dad
Gaud
coil
gloss
##gesch
cyber
1314
##ricus
Ordin
##hama
1085
Communists
globally
Dorset
##daughter
##rovision
089
salvation
Lj
##omfort
##tham
bei
##131
promises
APA
##boards
rhin
nasal
Schumacher
Giorgio
4S
SAN
jaw
##icata
commissions
##NAT
infamous
Belgrade
Jrgen
Kiha
galaxies
Russo
GIRL
Flickr
Mille
mating
Scher
garage
LMS
LTP
Wich
##opod
##llus
obey
##OLUTION
minds
flowering
brutal
bombardment
DMS
Nils
attenu
radial
replica
1307
Teaching
harv
commemorated
Tasmania
Gum
##jong
##estan
proton
##ovic
##ignment
USGS
##ijah
donation
McCoy
Rapper
##ASTER
Aeronaut
chassis
distribute
smallmatrix
Kamen
Masc
Rar
##nation
##eback
guilt
Pseudancistrus
##iskey
GRE
Gaius
##Arts
Icelandic
Caldwell
Siemens
##2010
amen
MacK
Weh
##idelberg
defendant
switches
excavated
analyses
CAF
Dau
Trance
Ulysses
##antan
##itional
##oxin
schiz
Macro
caliber
Ashton
Career
compatibility
Dryopteris
memorable
staple
ENTER
##jeunea
EW
Fountain
sake
##cies
##stick
##rann
seaw
quote
textbf
specialty
minded
heroic
Rankings
##connected
amendments
Hogan
Loricaria
Rept
fatty
##idion
1418
clo
grandis
pays
##NY
##atown
Alta
##ophthalmus
McP
Salam
CRJ
SSR
Papua
bubble
Ect
##tis
##fus
forts
unav
00UTC
Micron
Artificial
Supply
Sarcophaga
RSSSF
cv
foster
orphan
##allis
Basque
Freeway
chaired
oceanic
Chilean
Athenian
Average
fleeing
redevelopment
##plain
protested
infilt
spectators
Alessandro
Flynn
LIN
##atron
ignor
Bottom
Fruit
Rast
##oodle
Merchant
Battery
1006
##cestershire
equals
illusion
Fangraphs
unnamed
Kats
longirostris
1252
EXE
talents
savings
E9
##emani
Resear
1156
DDG
Lebanese
Sporting
Squalius
HV
pect
vide
##bat
1323
##achis
Enne
058
Secure
emperors
1364
perpendicular
AIC
Sack
fuck
rides
Prion
##tenstein
ratios
##CH2
Bella
Move
ken
knights
EMBA
pipeline
Daimler
Naked
##omaculatus
095
conditioning
backgrounds
obliged
cocaine
Theresa
KI
Killing
Pony
##dar
Alma
##upa
Appeals
circulated
Interc
1397
stripes
Balkans
CIS
Gage
HER
dye
##rusted
Alphab
Shiva
markers
logging
##IKE
exploited
Tav
##olulu
fraternity
universally
installations
unnecessary
illegitimate
aper
reint
attach
generates
AUG
##iazza
Hald
##Radio
##edience
##ophe
1431
##ementioned
06R
GIMP
Hair
K9
tears
##news
##oots
Coaster
honest
originates
Stephenson
Baronet
Soldiers
GOT
Mbit
PJ
Pages
##enas
##estation
1398
##ihad
generators
Fairfield
ambigu
tvb
Uh
nons
##tu
2040
Shining
quasi
##onyms
projective
simultaneous
Dietrich
##ivodeship
Fury
G20
Sle
TER
VIA
cra
rats
##racks
##abh
attracts
flora
Pupp
pixel
transfers
Lung
raz
##estris
##rophe
defeats
corners
seventeen
Equipment
proprietary
HALL
##olta
##146
Monarch
Crimson
ARK
Seek
##iten
beats
##133
##forward
skelet
Format
Gladstone
minimize
Poecilia
Intermediate
Hai
Paste
lub
##bear
1437
##ribes
purported
Showtime
sinh
orient
Everybody
Investig
rumors
adjoining
Guru
Zw
##rays
##unge
empower
##onicum
vertices
Athena
FAL
##SR
##ordani
Scr
##owska
considerations
immense
tenuis
Fiat
##fight
##iap
spectacular
Cyclops
soy
tiles
Plans
Smash
DEL
Nure
duk
##lash
##iris
inclus
secession
warmer
##OLL
Tsuk
Jou
Yuc
Theta
##orte
ambiguous
PMC
kappa
1009
exponent
Angle
terrible
##LEX
torque
kinetic
Turtle
##won
##anis
##umbo
confronted
7s
Rho
Zoom
ego
1023
geneal
SSD
Straight
##hythms
envision
cren
##eon
##eous
Medina
owed
Kobay
##permum
spinning
expired
Chey
1265
Dolby
WARS
rider
##ansom
checks
Elephant
advisory
Restaurant
Het
Kik
K10
Xt
##CHO
##ilu
##leading
##istries
justify
hardcore
AIG
##M2
Theob
Barcl
farmland
##monary
Links
Gym
Ratt
pter
##opolis
Pras
##404
Honolulu
packed
##ontinent
overlooking
gon
##Fe
##195
1103
1102
immunity
Nezumia
SEVENT
ALC
MAP
##CN
##AH
pars
1187
Remote
Bronx
yu
1374
##ryi
Socit
OpenOffice
Woody
Esther
Judg
ambient
Deborah
##asmius
Persona
Reservation
vendors
Houses
##vd
consistency
explanations
Mechanical
##kos
##asco
##ropoda
Securities
adviser
Soundtrack
pmod
reorganized
epidemic
Domingo
peculiar
Yar
##erea
##ensburg
##608
##astered
snakes
progression
amplitude
psyched
Sources
Tum
Vac
##inished
##onential
##ivorous
##opon
Bloc
Elk
##ITH
payload
pastoral
SNCF
routinely
HOY
tear
##uins
##unton
Shane
Ismail
Hawth
GOOD
deliberate
reporters
deport
chances
outright
blend
recognizes
logar
acknowledge
Titans
##janus
##ositions
baron
1387
Organic
hololive
Schultz
LW
##avers
##286
1294
confirmation
aforementioned
Fon
ib
tn
##eways
possesses
Neighbor
Aet
Ket
Yor
cites
blame
Corpus
reply
basal
personalities
Humanities
##patrick
Gov
rRNA
##TF
##ioidea
##emberg
kat
##alb
##enthes
##street
##igue
##illation
1008
##uanensis
Purch
lon
padd
##vill
##olute
1416
Yorker
vols
##iership
slowed
scattering
Nguyen
##AZ
volleyball
delegate
Optical
Mok
##lander
occult
delight
Opening
##liga
Gaston
Wilmington
Sonny
EY
tsh
Parab
insult
##hetics
Submarine
Teddy
##empt
##ayas
outline
operative
Elmer
091
traff
Trotsky
hyperb
1046
1195
atroc
Northwestern
Loire
Somalia
garde
aurant
Kraft
1322
Paraguay
Huyn
blockade
Tsing
complaint
Frog
Points
##uake
##mot
##ideae
desk
##ismatic
Elaine
GTX
Semi
talented
Nikolai
##1111
backward
069
Novell
Recently
Reddit
inputs
Bombay
VizieR
Matsumura
IJ
T5
##orical
unhappy
Trading
Playing
##ascum
##sequent
convergence
Navigation
##harma
Welch
hunters
disagreement
##rude
##hene
highlights
Opus
linguistics
Hannibal
enthusiastic
plumage
pach
##ogh
##rai
##132
Presidency
Deluxe
1467
Whether
Claudia
proclamation
medications
##opygopsis
##zar
##isal
workshops
Mead
##256
##ihara
surroundings
Vargas
Sinn
Ull
##rev
recapt
Trim
introduces
Ruiz
##hynchos
lethal
Dys
Gau
luck
variance
IDF
Villeneuve
Jonas
##worthy
morphology
tuned
8A
Pah
1112
stain
volatile
##ommun
1071
domination
Tools
Zip
Zeb
Blow
Superfamily
PostScript
oliv
Response
Avery
Sabbath
superseded
##riv
Pradesh
1308
monarchs
Gymnocypris
Exposition
Verbascum
Gmelin
5mm
##hs
Affair
metabolism
Baird
##mol
##ocytes
basically
##iolet
##901
Merlin
displaying
Brigadier
Ridgway
Horm
Nec
Sod
apt
zon
##kV
##alom
##umper
1139
guides
MySL
Mesopotamia
Kt
MAM
Vince
##apur
clip
surgeon
hostility
Wilder
earnings
##acock
Them
Croix
1456
breakfast
precious
Bertalot
Cavendish
stackrel
##zilla
##actis
##airie
##456
hostilities
Papal
Amphib
##osexual
Clifton
MTR
##idable
##ayensis
scout
accepts
dispersed
Hopper
Steud
Pern
Abyss
Suit
##alde
finances
##eutic
Sarat
1468
Murrill
simplest
Oth
loses
##eln
Alvin
Seasons
077
082
##oppy
Busters
##ODE
ultra
parallels
Brasil
BG
DOM
ss
tamb
##jak
Chicken
##ensk
Sheld
1209
basil
Ending
suspicion
Rao
ig
1236
##ocycl
Verde
KIV
##iferation
1414
Spac
consume
##ASP
penalties
benefited
Dundee
Customs
Hours
jac
flaw
079
AllMusic
mercury
exhausted
Eduard
##hima
##MT
##nde
1336
1372
plut
postwar
archbishop
swamp
hunger
Vend
##ersal
Inver
##mostoma
Ballet
licenses
academics
exceeding
Foley
Threatened
Parallel
Craft
Nij
##akura
Compton
##ersonic
Weekend
Tobias
knockout
##unts
##405
receivers
qualification
bowling
positively
Emirates
Kou
Ski
TUN
##owi
fried
##arti
Should
Grid
Append
ANN
simplex
##angelo
vegetable
TPP
amplifier
wrapped
cosh
##wr
##VO
1395
##ismus
revital
Tokugawa
Sears
##Se
1386
##uche
recession
Melville
pressing
Muir
##oplichthys
Omaha
##tienne
##children
Bingham
lamps
##sohn
Garrison
Lucia
Rhab
diffusion
aristocracy
Scandinavia
Aki
##ossom
assured
expulsion
angels
Initial
Vocaloid
Derm
gi
##staff
spars
##ITION
diocese
##iotics
Moody
Viva
##termin
seaf
inflammatory
Slow
capitalist
repaired
Bers
Pelop
Vere
Wife
lords
##Vox
##ibles
offence
Waiting
astronomer
Abrams
ashes
##ebel
##ificant
Peruv
##ilaria
##chelys
infants
charging
Hermes
IDOLM
Baud
Cah
Juss
##ffen
##upid
wells
Andalus
Mongolian
Lectures
pilgrimage
Lime
aequ
##One
##303
Subsequent
TRI
##lemagne
Cirrhilabrus
Pterygoplichthys
JW
P3
dell
ranc
1427
##ppert
cliff
##inald
Consul
labelled
WRC
elegant
Pie
##roper
##ibia
workshop
Sigism
Sage
1134
revelation
Frankie
panic
Esk
bytes
dehyd
1003
invade
Flix
##omyza
substitution
Olympia
bonding
Nymph
spawned
Hypselobarbus
Lythrurus
cake
fern
##gars
objections
Estad
BOYZ
Dominic
Pomacentrus
polynomials
##V240ZJ
##ozoic
Bred
R4
UD
##icides
##ilateral
Theology
##adle
##ermis
INTER
##200J
##osynt
Merrill
Goss
Keel
##itations
comply
argente
1500V
Aqua
VH1
Pais
##jah
##isin
##iptera
hash
##eldom
##ASON
Myri
Secrets
bordering
uncovered
winged
wilderness
Irvine
grammatical
GET
1273
##angs
Shing
1192
Dire
Lark
##aroo
##iquit
restoring
Hypopt
CR200J
rotund
OPEN
Named
UPS
##ocaul
seab
talked
mantle
mutually
afraid
Scarlet
crocod
WL
lamb
##costomus
##ZO
1142
Chou
1422
admit
disability
neoc
1491
CASH
intentionally
1474
##308
affirm
Stray
Winters
Darius
assumes
Lama
NDP
##utations
Orch
infring
Bergman
etymology
gut
##osin
##ologia
Micropolitan
stereo
obligation
provisional
dictatorship
Bail
Giac
Rage
Rez
##linear
skeleton
Sketch
##rogl
##uttatus
Colise
CPR
1458
updates
Peggy
EUR
Lol
chen
##App
##osium
1149
Blanche
##enteenth
cipher
##Xiv
1337
##ibu
subway
visibility
Salmostoma
masculine
McKinley
incub
##yeong
Ruellia
sunlight
##occup
Kwan
##VR
##utor
##unks
##ipio
1324
Bride
##roved
Meadows
##bergia
SDRAM
merging
sanctions
postponed
HEVC
Igor
##uang
##jug
Duty
dm
##moor
##ensation
1005
simul
weaker
##liners
Tara
aus
ssp
##tsville
Silesia
TVB8
rooted
Downs
accumulated
##ochemistry
##odromus
Guerrero
FAIRY
Browser
##girl
##drop
##ository
##andum
##othrix
IIA
trauma
ballistic
Etrus
Dickens
Faber
Dinosaurs
hurricane
Fissidens
##aest
##his
##ethe
1116
PME
##rofit
Doctrine
Spielberg
Carrie
BSI
1291
axiom
badge
Bacter
##erver
##ritis
##flin
Corona
statutory
transformations
Kao
MEM
Ples
##Talk
inmates
1022
spans
blades
Peoples
1072
pulling
DMM
miniature
Deutschland
cassette
5C
Bn
Kitt
mex
##ITA
CSL
Levin
relegated
##iav
##game
##Web
1348
Scaph
##ophobia
043
potato
Surf
Takahashi
Oasis
Zi
##onite
intimid
geology
Vanessa
robots
CID
nave
surge
Alexis
loads
translate
Sherlock
landmarks
WPA
duel
##vus
##very
Editions
Elf
superiority
wetlands
teenager
bourgeois
Schleswig
Rham
##iau
##ppo
trusted
amm
Frankish
1261
##uffs
##imbri
Voices
prevalence
PAN
SIP
##bilt
economists
invasive
rehabilitation
Sart
##oreline
##eche
##sei
Uni
Autonomous
conditional
Wheat
3s
Dit
Hicks
rites
resume
aden
trif
Boost
mirrors
utilize
Material
Permanent
JET
rut
##rada
unint
classics
##ourses
Baum
##escu
3x
Yoko
criticisms
##banks
1124
##onders
upheld
##rosis
##isme
Brend
patrons
Buffy
##ithecus
Respons
##oloma
##season
Choi
intimate
##planes
Eddy
##uela
accordingly
Exploration
Steele
coincided
Monastery
HAR
##gha
Schr
wouldn
Harvest
Actors
A310
Gardiner
MCA
Gerry
informally
Pyramid
tetra
Sous
##orpe
1246
##ovir
undergone
maturity
cheer
axes
densely
MOSFET
reminiscent
##mile
##atella
##rex
Stade
Marasmius
ICU
Billie
Bosch
Kris
Yves
archaeology
Viktor
prostit
ocellatus
Sinai
federation
degener
Summ
Andersen
advertisement
bells
han
##evol
Alison
compelled
distortion
bloody
Syndrome
Sole
mari
##gion
##dong
##Coll
1143
##apus
contraction
##irche
Hubble
Herzeg
Eunotia
maiden
Dillon
Horses
1186
##ucid
##berto
teamed
teammate
Weir
##guer
timeline
renewal
Iberian
explorers
##uced
valves
1194
sympathy
troubled
Cosmic
##hetto
Mauritius
SEVENTEEN
gibb
Edit
Intelligent
subjective
Moto
Na2
REB
Kras
Kiel
Wedding
contamination
Godfrey
PayPal
thoroughly
john
Kidd
##icollis
Brack
##resh
##139
biom
Burger
explosives
NYSE
Bew
Balf
sinc
Bring
Paran
Abe
1151
Diels
scenic
Museo
Susquehanna
BTO
Cocc
Gud
Hux
Kann
Kier
Nos
lasts
pes
##gender
##icornis
##odoras
##loon
Domestic
gateway
Auburn
8K
leng
seldom
Ork
088
antagon
affinity
feeds
[...]
